[PAD]
[UNK]
[CLS]
[SEP]
[MASK]
!
"
#
$
%
&
'
(
)
*
+
,
-
.
/
0
1
2
3
4
5
6
7
8
9
:
;
<
=
>
?
@
A
B
C
D
E
F
G
H
I
J
K
L
M
N
O
P
Q
R
S
T
U
V
W
X
Y
Z
[
\
]
^
_
`
a
b
c
d
e
f
g
h
i
j
k
l
m
n
o
p
q
r
s
t
u
v
w
x
y
z
{
|
}
£
§
©
«
¬
°
±
²
¶
·
»
Á
Â
É
Î
×
à
á
â
ã
ä
å
ç
è
é
ë
í
î
ñ
ó
ô
ö
ú
ü
ā
Ă
ă
ć
č
ĭ
ı
ł
Ń
ń
ő
š
ž
ǎ
ȃ
ȋ
Ș
ș
Ț
ț
̆
̦
α
ε
η
ι
κ
λ
μ
ν
ο
π
ρ
ς
σ
τ
а
в
д
е
и
к
л
м
н
о
п
р
с
т
у
ӑ
‘
’
‚
“
”
„
†
…
›
€
←
→
≥
─
│
┼
●
♦
♪
😀
🙂
##r
##e
##a
##b
##o
##g
##t
##u
##l
##s
##i
##n
##ă
##c
##k
##m
##á
##p
##d
##B
##C
##A
##O
##R
##Y
##9
##z
##v
##P
##S
##T
##Ț
##I
##E
##h
##y
##5
##2
##4
##ț
##f
##ș
##î
##w
##j
##ë
##K
##G
##í
##ρ
##ο
##ς
##0
##x
##8
##│
##D
##J
##V
##7
##6
##1
##ǎ
##Â
##U
##M
##N
##L
##â
##Ș
##ã
##3
##q
##W
##é
##X
##Î
##ö
##H
##Ă
##ó
##Z
##ı
##š
##ć
##и
##п
##о
##р
##д
##м
##н
##с
##т
##а
##в
##̦
##ā
##τ
##ι
##λ
##ν
##η
##F
##ä
##à
##¬
##ü
##ç
##ӑ
##к
##ε
##ž
##σ
##е
##É
##è
##ĭ
##å
##č
##π
##Q
##α
##Ń
##ń
##μ
##×
##→
##κ
##Á
##ł
##ȃ
##ú
##у
##°
##л
##ô
##©
##̆
##ñ
##ő
##─
##┼
##±
##€
##£
##ȋ
##♪
##🙂
##²
##●
##😀
##♦
##←
##≥
##re
##te
##ri
de
##ul
##in
##nt
##le
##at
##or
##ți
##are
în
##st
##ic
##ar
pe
și
##an
##it
##ce
##on
##un
##al
##ie
##ru
##me
##ra
##ui
##ate
cu
##ro
la
să
##de
##ti
un
##ste
ce
##il
##er
din
in
re
##ân
se
##cu
##ol
##om
##ntru
ma
nu
##ului
##ea
care
că
ca
##ci
##en
pentru
##ați
su
##im
##ii
##ia
##ut
##se
##că
##ine
##uri
mai
##ct
pro
##lor
##pe
##ori
##ră
pri
al
##rea
##ot
ace
con
este
##area
##is
sa
##iz
co
##ată
##ve
pre
##tă
##si
##mp
fo
au
fa
##ici
##fe
##ei
##oc
##ur
fi
##ch
an
##du
ne
##ile
po
st
##ma
##men
înt
am
do
##ând
ex
##la
##ale
##di
ar
##ză
sp
##sta
si
te
fost
me
##ze
##sc
##va
##um
##oa
pu
##ge
ap
##ță
tre
##ta
##ment
##rii
ac
##ște
##sp
20
com
##ții
##ică
sau
##ist
##up
##arte
##une
##ști
va
##să
le
##itate
mo
##zi
##ice
##bil
mul
##oi
##lu
sunt
##ită
##ter
##ța
##rie
lu
##os
##ăt
##ilor
##ca
##ală
##ăr
În
##ne
##oare
##țe
##pt
##și
##sa
De
##iv
##orm
##da
##bu
##tre
##ite
prin
##ât
per
##og
cre
##cți
##fic
ale
##ran
ve
##mb
##lic
##ata
##us
##el
av
##ip
ur
to
##acă
at
##imp
##ort
##ind
acest
cont
lui
##ară
##ara
vor
##tele
##rin
##tea
Nu
##cut
201
##ane
mă
fie
no
dar
##omân
##mul
##tiv
##ari
##dă
fă
ai
##hi
##mă
##ire
ră
imp
##ura
##ig
##stă
##za
##rat
Pe
##rul
pl
mi
##rile
##ap
##cum
loc
ob
##upă
##orul
##din
##rit
##ven
##iei
##urile
##buie
ad
af
luc
##co
timp
tot
##ție
comp
Un
In
##he
##gă
##min
##mn
Re
par
##mi
ori
##form
##so
poate
##ba
înce
##ură
##uro
##ing
##ția
dec
aj
##aliz
##dic
##țin
cum
acea
##sul
vă
##od
##ga
Se
între
##itatea
pa
dis
pot
##ib
mult
##spre
iar
##itu
##âr
fe
##ub
Con
##ună
##tate
când
##ten
cel
face
##and
or
##ână
##gi
pă
cele
ul
dacă
##uni
după
priv
##ează
##ina
##ini
##uă
##onal
spe
##cul
Ma
##șa
##00
##stru
19
##sti
trebuie
are
ani
parte
##ov
##nta
inter
##pre
##erv
##ua
despre
##ene
el
sub
câ
##ină
nici
împ
##șe
aceste
Român
##ații
##ati
##lă
bine
##ir
##spe
într
##amen
##ide
##op
min
asta
##scă
int
era
##ces
cop
sc
##care
ju
dintre
##atul
Ce
doar
##ala
##ânt
##ord
##olo
produ
##țele
foarte
aut
##ili
##orii
toate
leg
##vă
tran
La
##rilor
dep
##mele
inte
ele
Ace
##ocu
##inte
mare
ni
##til
des
Ca
##ație
##ația
di
##gan
##be
Am
unui
##zul
prop
##cte
ta
apro
##ier
##tic
întâ
ba
ști
noi
##mea
sup
##ntă
##fel
pub
speci
##unea
lucru
##ver
ei
##cat
##ana
vede
##unci
##cur
Și
##na
##oast
##pa
##țion
pol
##hiar
##ități
200
multe
exp
fun
##ani
cal
##bă
vre
##mentul
##li
până
Pro
##duce
bu
##ria
##ni
zi
##tul
##chi
##fer
##zent
tra
##gra
##ute
##ană
Com
##con
Pentru
##che
așa
##rept
avea
lor
##ica
reg
##olog
##lo
##vi
##vol
unei
peri
##am
##urilor
op
această
##ren
##do
##vo
so
fin
An
##au
disp
putea
perso
aici
##ali
##ona
##peri
unde
oamen
Ar
cea
##stfel
Te
acum
##pul
##ita
##atori
Euro
du
##scu
##iți
##one
fără
organ
cei
##rum
##ține
urm
chiar
două
pute
dez
ora
##iect
ade
##rim
##iile
as
ab
##bui
mod
sol
##cti
către
##clu
drept
ci
##sig
##mente
10
tine
comun
##ativ
român
##ien
vi
sim
##fect
##ctiv
##art
gă
rec
Dacă
util
##ric
România
Bu
Cu
St
##ers
Co
Dar
ajun
##put
eu
Su
făcut
##ante
pla
##lar
cad
cât
privind
cul
Po
fapt
ajut
activ
cun
sta
via
##rate
##ble
##istă
##res
##feri
##alul
ceva
##ațion
##ora
##vel
fiind
##căt
##șt
ceea
mun
##veni
alt
Dum
##ator
##una
##mai
atunci
ase
încă
##dent
pun
ra
##chim
utiliz
##id
##meni
##zit
##raf
##nă
noast
Ne
decât
da
##cție
fel
##ței
##zut
##bile
ven
avut
form
ter
##je
Me
##ote
peste
înc
##vit
zile
alte
num
serv
trebui
nevo
##olul
gre
viz
##cip
inform
Al
prim
##stul
##rij
stat
##mbrie
##tăți
##arul
cur
euro
ro
##omn
astfel
fiecare
organiz
for
inst
##șit
##icip
spune
ave
repre
cer
pers
##neze
##ității
îi
Pre
gen
##ract
perioa
mine
deci
schim
spus
trans
nr
##hn
fac
##uz
atât
##mat
##ule
##gu
##unte
##den
puțin
##ării
Le
Este
public
ți
Da
##ției
anul
##ania
sus
lim
cons
bun
##spun
##mis
##menea
##ace
en
cadrul
##anță
jude
polit
##orta
câte
respe
##ja
##tat
își
##mului
val
##gen
##în
îl
##ctor
##cea
proble
##gin
prezent
sing
##pte
##sibil
##ntre
contin
Dumneze
ea
dire
siste
##mân
##der
##ației
ch
##upra
cap
asemenea
##ptă
##dea
##ședin
inf
##as
sf
Mi
unor
persoane
memb
18
mea
##ion
##teri
pie
##mei
dist
nivel
precum
pat
##dit
##lig
##zin
##lat
##lin
##rei
##mo
##mil
ev
Sp
##ron
fil
unul
ulti
##urn
##ud
bi
##ntr
ech
##țiile
medic
##orn
##tatea
##oane
îna
tip
##tern
situ
tă
gra
exe
Ap
realiz
întâl
##unii
orice
rap
conf
cine
scri
15
##otri
##uver
Dumnezeu
##dul
##use
##gul
însă
neces
nevoie
##ațional
##col
12
##itor
trei
##iber
men
##iere
##rut
mar
##ha
copii
##cure
##ore
inclu
##ților
voi
##cția
of
El
Să
început
aplic
##conom
bă
ie
cazul
##ăm
comple
celor
locu
caz
##vin
##loc
dat
asig
apă
aceasta
##sea
adev
##oase
declar
##ole
na
##ări
semn
vrea
Ex
sig
##ure
##minist
##rează
meu
##anța
dezvol
plă
față
Pri
##mer
##ozi
##ans
prote
##erg
timpul
spre
artic
ple
li
ru
nou
progra
asupra
profe
proce
urmă
##lui
##sele
Fe
##stea
înțele
proiect
Par
măs
part
consi
##cre
##lul
sal
prea
Cre
##atele
mili
##rag
##odată
11
cau
##fă
##cep
##cen
aceea
cl
##act
prima
##man
##bat
famil
##prin
##dep
##țul
##line
##ele
Sex
autori
##ătate
numai
##stori
##bi
acord
##ațiile
##icii
desc
##rist
Ch
fol
Din
##ient
Bucure
oameni
acesta
tele
Pa
cla
acolo
##oni
ga
##uvern
întâmp
##ume
##ivers
condi
##ard
##bor
iub
##mite
sco
venit
act
##ond
##rân
lun
ant
mate
rez
##ărul
mari
sen
tu
col
##tare
##ual
##ograf
met
publ
##ocie
princip
om
##imic
##ape
##cțion
data
##ească
soci
Cons
special
##irea
2018
există
constru
econom
pier
una
##bilă
frum
partea
##siv
core
fot
30
folo
##ținut
##fică
##cin
pare
acestui
##oarea
##uit
Mai
înainte
stră
##rup
##tori
ban
Sf
dori
##sten
tehn
##seri
##urii
##ug
aște
prie
lum
##ob
##duc
copil
##oldo
conce
##ac
cor
##gist
posibil
încer
##ific
administ
##diu
pen
uș
apar
##ătoare
##atului
finan
##dere
on
vin
##țat
##aționale
sex
gener
ofer
sur
câteva
conform
##xim
acestea
nat
Or
cere
##oasă
echip
##anu
București
##rop
simp
Tre
##cii
nume
##ându
acce
folos
ide
inve
stabil
Ad
tră
Mo
cole
apoi
lei
##iș
const
Eu
##tează
##sit
##tarea
oraș
ales
00
##diul
înch
urma
îmb
bună
Sunt
##ctive
efect
000
trecut
său
##itat
##rați
După
faptul
##mnă
Europe
modi
punct
prieten
spun
adevăr
acela
##uși
##oman
nimic
##itori
sale
rezul
sigur
crește
mulți
##ntul
luni
primul
##tății
șe
istori
răspun
can
##mânt
lă
14
învă
sunte
importa
##iu
##zia
che
##et
##izi
##fle
mic
##mentului
vedere
viața
vo
13
aproape
doi
stu
##tra
Bi
##par
cred
##rarea
Ju
contro
##fi
##lea
16
##erge
Consili
mon
perioada
Ve
pune
dată
neg
avem
ima
Mă
eveni
desch
gând
îmi
președin
dum
##ose
Comis
rel
regul
##oară
transp
Acea
##tor
resp
împre
căr
vom
##nea
17
potri
particip
Do
##scul
##rare
##dus
##stin
Moldo
pove
domeni
##ferit
##asă
##ase
Cum
exi
##bit
To
mân
##onul
##lan
##urat
declarat
UE
lumea
Ra
nostru
vâr
##ublic
locul
##II
##curi
toți
##sion
alege
îți
ești
site
##isc
cri
##ative
produse
dem
îng
ame
Au
viață
##ost
Uni
date
et
Pol
Tot
car
știu
liber
##zie
import
ag
##urul
##luj
##unile
##zat
##eni
##ok
##lie
cult
ver
noastră
##zintă
##zb
##RE
##ferin
ore
##ocuri
##ători
cate
##dele
##dia
##cută
Ști
lip
săptă
anga
noastre
continu
div
##regist
intern
feme
deja
put
##imin
poți
indi
At
exemp
vine
25
##ss
oblig
##soci
joc
cuv
maj
199
câști
##tului
##anie
Lu
Că
##ferite
maș
##nic
direct
##rului
înd
acți
personal
##jul
lup
conside
##cup
##otriva
##ozit
##und
institu
rând
toată
##stăzi
##tal
prof
anun
Domn
cunos
schimb
##pene
##gh
bene
Prin
Ba
luat
ali
milioane
fața
popul
2017
văzut
local
ajuns
##cute
gene
Trebuie
por
CE
Acest
ri
cara
Mari
tri
lume
cit
##ință
##car
##făș
##of
dece
României
##mentare
##ortul
##oaște
contra
##tive
##uș
##nti
tău
împreună
plan
##bo
##AT
##orului
##știi
docu
##melor
materi
Ale
##venit
##erm
##telor
socie
numele
##ribu
##ațională
experi
cir
faci
cin
Ai
vei
##itățile
obie
elect
desfăș
##mează
##itoare
ge
înregist
##tie
aș
dev
grup
băr
Const
##ența
facă
##curs
##brie
oamenii
##fici
came
interes
pur
împotriva
##zii
##iul
##fa
##ângă
##lus
compe
##eră
reprezent
##sat
Când
pract
Moldova
putem
altă
cerce
erau
##tin
##ută
anum
Mar
sti
Sa
##ghe
prez
ape
privire
vie
Pă
##cia
aface
angaj
mil
##țelor
cump
post
țin
##derea
moment
##uale
100
##ațiilor
muncă
##gat
##rata
##mentele
doua
Si
trim
ridic
bani
regi
servici
##lică
proprie
dă
##uie
##pta
##ărți
scris
##cta
cat
domn
##oarece
##seamnă
##operi
baza
##dem
totul
scă
prive
află
aprop
cauza
căl
Deci
##met
același
##itul
solu
ia
##ox
##zare
tut
bune
##ritate
supra
comer
termen
##bal
rep
2016
ident
Io
telef
rea
ha
##ără
##rale
##turi
##artea
scur
folosi
art
ați
##for
important
##orno
bucu
##fice
24
Așa
lucră
recun
Ei
##tei
Va
##RI
vol
parti
##cții
##ck
##ital
cineva
##ult
solic
##iniste
Fran
înseamnă
nea
##diat
##ârșit
Rom
##iat
respectiv
##cer
##feren
merge
abs
Ga
săn
Asta
##ență
nor
putern
##fin
jos
dra
##lori
ope
repe
21
##fere
pia
##ova
rău
##ături
părin
diferite
sprij
informații
suntem
niște
țară
capa
publice
suc
lângă
mici
##rb
##terior
##die
vorbe
astăzi
##stit
Ha
financi
general
conduce
dore
##erat
Rep
Bă
acestei
##ctele
conte
arti
##babil
##alu
sufle
stă
muz
patru
##siune
##dat
##tr
primit
##sei
nouă
întâln
##rele
mart
lin
consum
rămân
funcțion
grat
##ola
##ex
hot
##ism
niciodată
amen
##ke
sec
domeniul
##dată
ze
camp
fond
mij
##alitate
ep
vot
Mare
petre
zona
pic
##can
auto
cuno
exemplu
##uror
ata
jocuri
22
vorba
Acum
50
iniți
modific
##iilor
reu
inclusiv
##țiilor
efectu
motiv
energ
##rică
acu
##oastră
mențion
Iar
##unie
##zenta
tuturor
##volu
ziua
##spect
instru
mode
##scut
Guvern
##zboi
încât
Nic
ușor
ară
##ant
trece
deoarece
anim
încep
aduce
##gori
noa
##alt
##gre
gră
unele
îndep
mu
##orilor
destul
prevă
plus
trata
pus
ada
începe
Ge
place
ajunge
implic
##cident
uri
oferă
##ope
##vs
târ
##UL
##iembrie
ocup
Cel
##urniz
##atoare
Mon
online
nivelul
##resa
be
comunic
ten
##otel
buge
ach
potrivit
pregă
##rec
române
vreau
##itare
vorb
##sesc
Is
No
##rica
acces
##voc
efic
contract
guvern
lucruri
inten
##ctom
##stant
pac
Ră
##gn
Ia
Car
Fa
##sm
##ilea
##gea
##âmb
Tran
##ptat
sfârșit
sca
întâlni
##vent
greu
san
tur
bol
anului
And
##ința
2015
lic
##ântul
asi
probleme
##tățile
acasă
produs
##dust
##vede
aten
Consiliului
##ural
##ctombrie
2014
##iale
arată
termin
propri
sea
mor
minute
lea
Europa
##gine
proie
Jude
##ert
Cur
săptămân
momentul
##pă
preț
calitate
păst
obs
##──
##oș
noiembrie
spi
##viz
##atorul
##ntrul
##gere
destin
##anți
tale
Dire
##gii
veri
căut
reprezintă
furniz
##eze
ren
vedea
Poate
inim
minist
##alele
respect
etc
##ulie
##ung
##ăl
##ideo
23
Ta
echipa
fiz
drum
având
um
##arului
##upa
raport
lans
##unde
profes
nă
legăt
vrei
##deauna
dintr
Republic
##NA
##urale
##icul
datori
ofici
##ow
##ruct
preci
analiz
##cate
numărul
##oar
##neav
pag
Univers
##anul
drag
reduce
octombrie
##reu
##toare
##rație
##dio
##ptembrie
acestora
fir
credin
decembrie
Ministe
cuprin
##NT
##gerea
##iti
puteți
##siunea
biseri
următoare
##ător
iunie
##rice
Aut
Astfel
benefic
afir
Inter
departe
printre
##net
bl
##oara
grij
număr
##sca
proces
dia
##atorii
calcul
##onsa
cetă
Tra
##ziu
So
ref
rezultate
Af
teren
vic
privește
##carea
limba
##gust
##ris
propune
discu
prelu
Vă
dumneav
urmare
Cred
##itorul
Miha
Biseri
ului
întrea
##ărâ
##stiv
comerci
rece
##oritatea
2013
##înd
interi
transport
Parla
##anii
servicii
Bra
##mas
Ele
septembrie
##ativă
măr
spați
##ritori
##sește
prom
Regul
Alex
încre
cinci
sân
Fil
permite
##SD
simplu
tex
##utul
Constanța
deose
Ac
ate
stra
##OR
##ft
Rus
##semn
pozi
jum
##onale
devenit
duce
moder
găsi
aer
dreptul
##itar
adevărat
învăță
vân
norm
putut
##mii
zis
##ximativ
dispozi
fotograf
americ
den
##termin
perioadă
##ang
##uală
##run
cost
Tim
##țea
pici
##ins
singur
școl
temp
facem
##arta
ti
Acesta
dimin
asa
civ
fra
tit
Cluj
articolul
dvs
daca
##știa
diver
mele
intro
##enți
##bate
juri
șef
simți
membre
eta
##ologie
scrie
edi
Aceasta
##ierul
mâ
##IC
adă
##don
##cției
##mne
##las
funcție
turi
atra
Îmi
##ger
meci
##dine
spirit
responsa
corp
##riei
##zute
pierd
nimeni
##unilor
extre
port
##cată
educ
găsit
alături
iulie
##lei
##ierea
##țen
program
##mar
știe
acestor
##cri
indust
martie
secre
probabil
##lement
curs
Regula
Tu
control
dure
vechi
im
Mun
efe
ime
28
##su
##ocmai
obține
DE
locuri
##anua
27
rămâne
articol
##anuarie
40
susține
conformitate
##ER
2012
evide
maxim
teritori
sin
##bul
##feră
azi
aproximativ
sistem
trea
lucrurile
mulț
rezi
uci
##isl
##oarele
##bru
emis
sprijin
##len
fii
TV
Nici
deschide
pop
văd
condu
26
Atunci
##alte
the
European
oca
bază
##cursul
##țean
Chi
Cine
vreme
mesa
tax
modul
##aj
deschis
ajuta
observ
rezol
dau
##rația
##rici
muri
stud
Be
siguranță
luna
##raj
##ânde
tradi
ianuarie
##alului
##bilitate
Chiar
##iului
##când
struct
afaceri
##stig
telefon
dumneavoastră
SU
jurul
##stat
afl
##eam
miș
The
exact
##înt
copiii
##ările
afla
alb
ris
##oz
##anda
##ibe
asoci
Cri
categori
##anții
promov
##atorilor
Per
Ur
răspuns
##ian
imagin
##rilie
membru
tru
național
mereu
##icei
##ctorul
##lini
absol
sar
aceeași
we
##ștri
Comp
închis
##ităților
##ibile
ajutorul
##reau
dos
##tific
##ST
##otdeauna
indic
##urarea
explic
Național
##ismul
##ristos
##ros
constitu
para
##ive
capac
ultima
##ue
sistemul
Comisia
integ
capit
##ster
##chii
univers
supli
2011
legisl
exer
ascul
administrat
valoare
arm
președinte
determin
##com
##cole
Această
reușit
prevede
investi
##alitatea
intre
partene
##selor
salari
mama
excep
cam
##ner
##IN
##dului
deși
carte
il
##ly
##AR
##uite
vezi
târziu
##gari
##zele
Mul
stil
amin
##les
necesare
seama
Uniunii
##tii
##arde
politic
Du
jumătate
Era
##barea
Cont
seri
##aniei
aprilie
tată
persoană
știi
europe
Ion
aibă
##dei
##tro
ec
acestuia
##elt
##unt
##sih
stand
aveți
zon
succes
crede
##iectul
##anțe
##iesc
asigură
poliți
condițiile
dom
război
##izarea
##AL
iz
Europene
##lia
rog
fran
##tim
corect
omul
invit
consul
##ou
țări
cola
Cap
evalu
II
importante
##chipe
infra
##vie
198
dus
publică
august
##rian
31
continuare
pres
##stic
cunoscut
##bili
amp
##bare
##ente
PSD
##isi
##știn
sănătate
##ționale
eg
ăsta
##inele
ae
președintele
existen
##ton
vieții
rom
formă
alin
mot
##oca
familie
res
29
##siuni
##ome
extra
casa
##ilă
Ant
îmbună
##aților
aminte
##uta
perfect
Ea
perm
Ame
man
Cele
rămas
hotel
asc
bărb
anumite
Tur
##otrivit
##ka
mana
lide
##alizare
casă
însc
aflat
interme
film
2009
vederea
diminea
##inți
bo
proiecte
imediat
Noi
Comisiei
întâmplă
sper
bloc
meto
##AN
##unat
2010
municip
##țare
români
scu
##izare
##umesc
##eau
locale
adu
##curitate
##vat
##rui
caracte
veți
##arie
distru
frumos
##mână
##găt
##șii
Cor
##IT
sat
##bia
poe
cite
echipe
Jo
##țile
##anife
urmează
##țional
##urare
##ricul
exce
șco
obicei
##cere
##mna
lov
scop
folosit
drago
pământ
Cer
sele
Serv
femei
Cop
video
##ki
clă
maga
##oace
final
##leg
cant
Mu
##artă
##sia
primi
Care
complet
aline
recom
familia
viitor
depă
Loc
##ila
##tit
altfel
ef
pregăti
##amente
##stra
șan
condiții
##han
mică
Av
Cod
##dar
cand
Min
singură
Ioan
măcar
Sunte
demon
dezvoltarea
adică
pierdut
fata
Ob
##bilitatea
vreo
Potrivit
unii
est
întoar
Face
sufic
multi
##ază
extrem
rugă
##cra
oferi
chelt
adus
naționale
activitatea
##reze
agen
##șul
exclu
ține
sens
măsură
Drag
legătură
##ON
Vic
încăl
##bol
##vizi
fiu
##spi
relig
pi
stare
vrut
sce
modifică
##apoi
##bruarie
##depen
îngrij
origin
bar
influ
apare
Vi
situația
prime
politică
##ărat
##altă
desig
Ave
circul
##utate
##lip
Ie
##vers
Mic
afară
băt
##umul
județul
Asoci
Bine
##zarea
țara
Aca
Ghe
părți
multă
europene
înf
femeie
întor
candi
râ
intere
##fera
sărb
##cați
##ry
##dare
sociale
arun
dub
##rească
Timiș
Ol
ado
profesion
2008
Na
valori
##zon
printr
##ral
##cător
es
lua
##ferent
prem
subst
Alexand
##son
Sim
zone
corespun
##țarea
Toate
sânge
##pat
Artic
continuă
##ptea
superi
##tod
Președin
doilea
manife
identific
##van
ero
transform
##onia
##oși
pacien
cunoaște
Intern
##cter
referit
##rumul
stri
##rateg
serie
##fiin
##sh
psih
dur
##ordon
primă
persona
##DE
total
necesar
explo
liter
întâlniri
acel
Doar
aplicare
##ătă
mijloc
he
copiilor
realizat
dupa
februarie
Ni
contact
următ
ordin
dove
gu
biro
scurt
##mentelor
En
##ologice
indivi
Porno
întâmplat
Mihai
##ota
punctul
une
##inde
statului
emo
instal
##știlor
vac
prevăzute
consider
##țului
gar
formul
întreaga
nep
regula
##dică
Bar
fisc
vis
scopul
##roase
contribu
On
##bele
State
##gență
gânde
eveniment
Trans
##cători
seara
##alog
##gent
Ban
următoarele
lar
mii
Regulamentul
Geor
Hristos
clien
acoperi
mag
Consiliul
rezerv
dol
specta
niciun
state
crit
##bări
intrat
##eaza
mediu
evolu
lini
Li
mie
repede
cuvinte
minim
banii
defin
sfârșitul
elev
asigura
auzit
noapte
porn
##alizarea
Gre
trat
legate
60
ajutor
dedic
##cit
cale
##nit
##iește
motive
primele
##ban
anunțat
##zează
Fie
clădi
New
orașului
principal
##dial
Unite
##ciu
Doa
##denți
întreprin
pere
Ministerul
##omat
oră
ultimul
convin
anii
##ismului
forma
##UR
achizi
compar
energie
creat
Zi
altele
##ctivă
materiale
194
##arcă
Pop
##bin
zonă
##bun
piață
SUA
Pat
##uia
atin
social
sine
frec
posibilitatea
##gini
tare
##vei
recoman
##ront
afe
centr
concurs
Bo
doresc
##tării
rele
caracter
##ah
##lalte
bog
verific
##lice
înain
Europeană
##rației
drea
##gle
țării
Sh
tocmai
puncte
colabor
anex
##sim
clar
totuși
med
Între
dispozit
spui
semnific
întâlnire
dezvoltare
500
conse
îmbunătăți
nicio
începutul
##nță
##ntat
##diului
##rg
Vreau
merg
ochii
măsuri
creștere
Primă
alineatul
sla
##tar
exista
##lub
##ctiva
##âl
km
cart
Mil
lan
Apoi
descoperi
comis
##geri
plecat
Nicola
Domnul
trimis
Dan
porno
Op
##erare
rest
sluj
resta
majoritatea
##cului
justi
fab
Germ
##book
Vale
regim
Domnului
Aceste
întotdeauna
călători
vârstă
intermediul
supraf
plat
##inei
2007
murit
##atorului
problema
dific
înapoi
##cțiuni
roman
##vanta
diferen
putere
susțin
##unț
##uirea
intră
##căm
##rată
căsă
Sal
rapid
##ation
##rap
Gheor
accident
confir
document
dea
##alți
##20
##ișn
afect
lemn
detal
provoc
înche
beneficia
lumii
piața
întru
Pute
real
lege
impre
aplică
Republica
acțion
ședin
Comun
Ci
vorbit
noștri
alții
##ît
activități
Gen
funcți
Go
vite
##dice
##atii
##uți
afara
##es
diverse
chi
Fin
##iente
naște
##jun
##nice
Deși
problemă
deza
Mat
obișn
vizi
##anței
##ram
astea
Romania
coment
iube
ieși
cetățen
pozit
##tăților
##izat
Reg
oamenilor
intr
bărbat
##OM
clasa
rol
spor
lit
Într
bra
indepen
felul
odată
resur
Cei
pierde
desp
##ful
Ora
##isa
dimen
oficial
Fo
gol
##ieri
##LE
interpre
înca
##duri
valoarea
denum
recomand
proiectului
##rog
##inică
##utat
fer
tehnolog
înțelege
model
Iași
anume
vedem
Nicolae
efort
organizat
Germania
35
##tali
##ainte
orașul
începând
##otul
alta
##alizat
drumul
##cări
datorită
Legea
poveste
Câ
##oacă
securitate
Came
mobil
adăug
france
conținut
##operit
activitate
##zate
săptămâni
parla
păr
##ime
fav
##IE
Progra
partici
##cât
fru
actu
aceștia
sistemului
cauză
șase
susp
##IA
acesteia
aspect
197
anti
masa
încercat
zic
Bel
puternic
gesti
serviciu
##inile
presup
Există
Di
proa
inima
fact
##șină
##arh
##sie
simt
ela
Vo
datelor
##usă
politice
##jele
procesul
##itudin
competen
Marea
prezintă
sunteți
intra
trebu
##isco
##go
persoanele
Ste
Articolul
##ugă
Fi
aștept
fiș
##zei
creșterea
gratuit
mat
apa
glo
financiare
premi
##riat
simil
complex
consideră
contex
##giu
dolari
prezenta
crescut
prezentat
gro
celui
extin
##bel
##oli
autoritățile
proiectul
nord
masă
utilizarea
varia
trimite
##ler
hotărâ
##ieră
##urală
mei
vig
##iercuri
##tice
Cult
perform
grijă
lung
##inii
numit
##erti
##ivă
##stice
arh
##forma
Constant
democ
mas
luptă
lăsat
##todox
Ro
Sau
încredere
far
Ja
##icile
decis
obiective
super
##ula
poli
##ork
Prima
crea
cerin
iau
##iza
puterea
liv
apari
deoseb
protej
îns
cerut
închi
##uda
##vine
##stență
##erman
##ribui
săi
##garia
animale
eram
metri
##nele
aia
strateg
2006
Ser
##uire
Cea
##aptă
##hic
vinde
##AS
##tură
născut
băn
învățământ
mem
acor
strân
produce
rut
Aici
##oci
ochi
prost
Gheorghe
retra
rândul
blog
consil
facut
suprafa
Camp
obținut
ajută
##ințe
devine
##ferință
conta
trafic
cuvânt
Județean
CS
duc
altor
înde
datele
cazuri
##OT
##oria
senti
fix
##țit
##ET
centrul
##ruia
##och
##hid
45
##ibli
def
lovit
disponi
școală
tân
pas
obțin
specific
Are
cheltuie
##atei
go
gru
ascun
##ilv
##cine
Dis
experiență
cru
Pen
##arii
surprin
ferici
Ul
pră
conda
##șu
adresa
vorbesc
and
deb
Conform
ier
speciale
##iciile
execut
individu
##ăn
demonst
zilele
coa
Daca
persoanelor
jurn
lista
##ducerea
##indu
vrem
spate
Ești
Cra
închei
##mise
Ital
##riere
presă
statele
căci
tineri
plân
##struct
produsele
##ational
specifice
victi
##ciun
##nța
Col
##âmbătă
atâ
înfiin
##rații
misi
##urg
antren
##ph
80
zil
##tile
web
Vor
edit
##cțiunea
For
căsători
log
acele
apărut
format
Națională
##alizate
##ilib
zice
##tenți
##atura
înțeles
trebuit
Sc
person
mers
##apte
procedu
George
aliment
ince
##fan
##────
##stei
referitoare
articole
risc
Până
##țională
fri
intele
Cole
fal
electron
mașină
săptămână
196
programul
cărți
Vla
Însă
##rită
Rusia
Sup
exa
noua
Ara
##ceava
Isus
##zând
deveni
stân
ameste
cure
##mit
copilul
##omet
Timișoara
Chișină
Tri
câștigat
Biserica
Maria
medie
noul
90
câți
##șov
##ich
renun
sport
participat
Avem
Ori
ent
##lam
Suceava
ridicat
viole
Sol
conține
spatele
##itară
lună
##dente
întoarce
dob
bal
cab
practic
uneori
greutate
bile
permis
lipsa
crezi
##lare
##oasa
omului
media
##nește
He
cercetă
vineri
vigoare
##terioare
##male
credit
Guvernului
veni
noaptea
insul
##sile
engle
interven
Naționale
fotbal
##rol
vremea
clas
mecan
celelalte
cură
##AC
##omen
##ntului
Spe
așe
top
Centrul
recunos
cursul
elimin
Ph
internaționale
păt
Agen
recomandă
dul
ocazia
câștig
acțiune
temperat
istoria
fen
kil
##veghe
##orat
Exp
persoana
Flori
imo
##rării
bucă
##dis
##tia
Uniunea
fiecă
##iga
pără
doa
Administ
ultimii
##iața
concent
coordon
lungul
##ket
Suntem
Sta
economice
Mir
european
trebuia
operați
##EN
Franța
ajung
situat
plin
eliber
statul
zilei
pregăt
jucat
evenimente
miliarde
importantă
mand
certific
Alexandru
hid
modern
viitoare
profesi
Facebook
Președintele
naturale
70
Gener
sănăt
Pla
mulțum
inv
##ens
schimbă
indiferent
##irii
uit
mâna
##end
##itudine
Statele
prel
română
rolul
We
oferit
Voi
filme
noroc
191
Hot
client
Roman
Universitatea
Luc
Sib
cup
##ologic
legii
##ong
pagina
competi
susținut
Oamen
stabilit
##chet
menține
sediul
apre
citit
##stră
##ficarea
gata
urgență
##anele
spunea
transmite
##orie
culoare
oare
##erve
străin
băie
##SC
internațional
foc
exprim
San
##zător
faceți
esenți
feric
Online
tatăl
Organ
vârsta
amb
deloc
##vâr
pui
##iri
##ibliote
Sfânt
teat
Constantin
ultimele
obiectiv
munca
##îr
##ureș
Casa
științi
detalii
##cile
împăr
##tică
##ove
ideea
înso
studii
îndră
teme
##ceva
remar
##stică
##inat
opt
curând
2004
ceil
fiul
Bul
mână
ine
##uită
uman
micro
Gal
abia
alți
reprezenta
include
condamn
inca
Stat
produselor
##terne
protecție
ii
facil
Public
##rael
înl
##ipul
##torii
pil
normal
Medic
conclu
##lului
parcursul
impact
Parlamentului
##ARE
gândit
##umat
##aris
dreapta
Sub
##tu
##ple
pan
Sch
familiei
pana
Parti
antre
Dez
Târ
lansat
implement
combin
##stele
##rip
opți
Dra
moartea
festiv
camera
avanta
Ev
coop
lasă
##rus
Cla
##icle
Chișinău
rid
front
##dici
funda
celeb
##ieni
prece
serviciile
##to
director
senz
Știi
studiu
dai
lungi
umb
petrece
##cțiile
mașina
195
Sing
suficient
Fiecare
##AM
Nord
##ficial
##ity
##urt
zece
##itale
adopt
Brașov
echipă
##ker
românești
Liv
Cră
##arat
Cite
##IV
##cie
tratament
urile
Înt
##zătoare
gara
aparta
Muze
Despre
Man
altceva
Centr
##zată
miercuri
flori
publicat
Guvernul
Rea
repar
spital
Ște
##all
ulei
seară
acțiuni
deschi
necesară
2000
oper
joi
##mine
încu
stau
fu
##ariu
frumoase
confru
##itarea
fete
test
Instit
Sig
##dact
crezut
altul
Inform
##relor
singura
consecin
dețin
tul
adres
descoperit
refu
##stian
duminică
##ideoc
opin
del
32
##pri
##reme
##onibile
fara
îmbră
Perso
36
domeniu
elector
lupta
execu
atenția
vreodată
regulă
vreun
potenți
separ
Municip
concer
urmat
buna
ministrul
negru
sufletul
imagine
tren
##iești
Ber
##șel
aminti
așteaptă
lice
marți
##ânte
Ag
calific
Știu
ieri
caf
Pet
american
continua
mediul
păre
națională
sarc
##ordin
situație
șo
Părin
refle
prieteni
tari
Vasile
sud
disponibile
##tească
interesa
300
##uncii
PN
Poli
aplica
##gele
recen
picioare
##ideoclip
##sibile
##atie
Doamne
##rina
gaz
Festiv
##rește
stabile
##țată
aprobarea
conflic
pal
dreptate
caracterist
transmis
semnat
mini
##ogra
vir
modele
club
##iene
##rom
##alist
Imp
încearcă
comporta
medicale
cercetare
calea
foto
starea
Iul
internet
pom
buni
##pele
monitori
folosite
Soci
##cătorii
##ny
condus
mărturi
frumoasă
##lax
decizie
Lui
VI
restul
grădin
Aust
fund
##umă
##loace
##th
viata
Har
transfer
arătat
copilului
Române
spațiu
dragoste
întâi
interv
dorm
##mos
capul
recunoaște
##ize
dip
Italia
Crăciun
ment
participa
sala
istorie
proced
societății
compon
##undă
Republicii
decizia
##ont
lite
vorbim
##tiche
avans
funcția
propriu
perspe
##urată
teritoriul
personale
vice
##itorilor
##ierii
fizice
băut
##nis
##lii
financiar
##iază
religi
Cun
Th
Comite
permane
Produ
##răm
cărora
românesc
##istat
##luri
fim
cartea
echilib
aspe
parcă
calitatea
încăr
Îți
înve
dot
Ade
aduc
##cțiune
simbol
##rez
păcate
plăcut
##oturi
org
2005
schimbat
vină
moarte
##ortun
urmări
modificarea
degra
supraveghe
Pot
is
strada
acelea
măn
III
##ționat
##ree
socială
poată
problemele
##colo
##omin
preluc
##cun
rețele
serviciilor
recent
prevăzut
clip
Pal
mijloace
ministru
Ima
ceilalți
##reia
Alba
Ziua
sensul
Brit
193
lucrări
infor
##by
##eamă
dege
Vrei
major
Je
##șă
33
companiei
depune
suport
##ENT
șapte
Can
exerci
case
propria
cado
##nică
mer
##ya
adân
bate
str
ling
Servici
informațiile
##tește
magazin
potriv
tipul
aveam
Anunț
Bal
muzică
responsabil
##itorii
cone
aveau
întreprinde
bătrân
##ghel
minte
benefici
stimul
vala
sînt
##pân
##orin
2001
##hicule
##ientă
dimineață
lunii
dura
ediție
##ctează
##oritate
câțiva
avoc
Cara
##oles
##onat
idee
terminat
dezbate
##nament
cent
ambele
Tele
##itect
##cle
Vlad
suplimentare
revi
##zile
impo
##ws
##oh
##ju
membrii
constat
cro
Amb
făcute
Acestea
Rap
##arilor
ON
##nesc
sâmbătă
Fot
##tent
##ek
##ița
SE
Danie
prezența
##gia
##oneze
rezultatele
Andrei
##10
economică
dorit
concu
Sfântul
povestea
Nap
##resc
##dan
##tesc
##pei
gust
Rob
scoate
Curtea
##sive
Ep
sh
##cent
domen
Cat
##mon
comune
Iată
singurul
conșt
numeroase
##asa
părinții
Val
Sibiu
ieșit
cunosc
##aturi
Dezvol
compania
conțin
comanda
centru
înaintea
categoria
##umb
##tatul
##RO
juca
##anei
secol
##tăm
esti
cauz
elemente
flu
##rand
neîn
lucrează
rețea
regulament
chest
Unde
Econom
promo
usc
adoles
grav
##zați
realizarea
cic
SA
##IS
##sești
salv
răsp
tinere
creșt
companie
legea
but
sezon
US
##șește
germ
alco
##ware
imagini
unic
Tru
manage
ecran
##site
jur
emisi
##elor
chesti
guver
##ptul
constituie
Împ
știm
sprijinul
##sch
##nătății
baie
##cel
comerciale
Vezi
toa
Alb
afirmat
nen
menționat
inov
Asi
poartă
Bla
ciud
bur
inspi
##curile
atenție
prețul
Academ
##ky
##aliști
Asociația
ret
##tați
##xx
abord
Tom
dig
vari
adec
rugăci
##riu
camere
Tine
##pere
Constitu
oportun
completă
##erva
hip
drepturile
relax
realizate
uitat
orașe
##ativa
Anul
lumina
Wil
alba
##buz
fenomen
orie
Mart
As
civil
Ab
##aru
informat
Pl
excepția
încheiat
Vin
non
Minist
Bun
##erul
doctor
stea
practică
expre
09
trage
sărbători
interne
mijlocul
design
07
sectorul
material
expozi
##cării
elabor
bugetul
domnul
##tura
situații
Sud
lăs
##IL
muzic
Justi
Totuși
##rest
verde
##ctelor
##atelor
Primul
fiindcă
stic
adul
candid
##samb
##ld
câmp
Gh
Prim
tânăr
##oaie
joacă
zah
poziția
învățat
Teat
Ucra
gran
##iscop
investiții
companii
ză
ins
Ministerului
##ilia
trase
anterior
##chip
Ter
mesaj
##utului
respective
##ff
mort
tau
promis
dorește
plină
##torul
mondial
##ida
țările
Sen
totală
Bru
##tată
umane
procu
definit
funcționează
##IM
pasa
sute
##roport
##ghi
##vieț
##UN
##ovo
averti
##cătorul
##onului
Cro
prepar
aur
mit
legi
creștin
Sper
timpului
Tată
##ack
interz
căruia
redu
##idă
##xel
34
reglement
folosesc
deosebit
Cal
rezultat
soare
Art
realitate
##lex
membri
menționate
##usine
##ărb
##ATE
Adrian
temei
##spector
uită
##ntare
Primăria
AN
Sco
organizarea
Fund
ordine
întrucât
consol
Edit
agre
##rimoni
##odul
Stu
fostul
opri
corup
genul
întâlnit
mergem
Mama
Încă
Paris
eva
întreg
##ben
##sească
înregistrat
Anunțuri
##rări
##nești
comună
închisoare
suma
Gra
considerat
01
lucrat
##arele
Poliți
fată
mone
înăl
scăzut
##anului
trecută
##ologia
îndepăr
lat
vadă
frecven
spect
Aș
##ărare
John
aplicarea
mâine
##cov
dispoziție
gestion
dr
##ărilor
întrebări
##wn
IN
##suri
##măn
UN
##otă
tăi
întors
utilizate
##OL
##50
distribu
catre
dimineața
die
femeile
bărbați
Ver
##urate
intervi
Mircea
RE
cameră
lumină
investig
cumpără
satis
02
plim
soția
##wa
Ștefan
##olit
nere
interiorul
clin
soluție
prins
vorbi
Radu
televizi
##ogle
bolna
producție
provin
controlul
schimba
##alia
împrum
##năsti
acordat
aste
##ction
##atia
2003
mașini
PNL
dans
anexa
##cilor
##osc
învin
Transilv
oa
##anților
pari
Cât
ulterior
turne
culori
##ografie
##bii
las
soluții
plane
Dragnea
încerca
privat
##sivă
chim
solicită
cui
##landa
capăt
active
##apa
forme
limite
##ficare
comuna
interior
discut
##hova
fonduri
utilizare
##nte
ump
cererea
mări
##del
Spune
zbor
Che
durata
femin
##țate
îndeplin
Victor
##scăr
fundament
găsesc
##argă
atent
gh
##igh
natural
credi
##iver
Sam
industri
2002
plată
Drept
Oamenii
##delor
Neg
lungă
partener
efectuate
##ocurile
acești
distra
recla
##rem
##pit
##aliza
tehnice
##ologică
dova
păsă
anche
prefer
partic
##sor
Israel
exclusiv
avion
event
##oti
tranza
frun
anunță
întreb
răspunde
cif
Sti
voia
însemn
presupune
Mer
fapte
treaba
##sem
prietenii
vii
absolut
Oh
Fără
##nți
Eveni
##ima
instituții
mulțumesc
faptului
altern
propus
decl
America
##ed
##anțele
##RL
pericul
orică
lăsa
lucra
poti
alimentare
căreia
##vid
vând
Inte
text
pra
adop
subiect
bro
ste
omor
viitorul
decor
##rig
cafea
Ți
##inței
##zelor
societate
atat
mg
plata
circa
##ondul
stabilite
tro
##ctare
desfășoară
plante
semin
Bas
vit
Desc
libe
##ko
##usiness
##fuz
##ierului
supliment
##imat
##dență
aci
domnule
MA
favori
##itorului
capacitatea
echipei
Ceea
conducerea
campion
cod
Nă
##RA
aloc
##lit
economic
Socie
Legii
profesor
desemn
energe
##conj
apel
frumuse
Nor
plăt
vizite
##anțelor
dipl
înțeleg
uita
cm
Educ
ținut
##tari
AC
Vom
aflate
Siste
putin
examen
carne
tipuri
fier
piele
slă
vorbește
suflet
alcool
Organiz
sportiv
Est
##înă
programe
##nescu
China
discip
pron
atmos
articolului
personaj
##șesc
##int
card
stăpân
cari
38
arhitect
Desig
prezentate
SC
spațiul
Feme
##hicul
conducere
Bog
secret
fierb
37
mănân
gal
Polit
preveni
tera
Iis
judecată
Bisericii
corpul
##po
pace
titlul
brit
##teze
minun
vară
credinci
##ovie
pant
românească
Europei
net
victori
##țeni
Istori
deas
stoc
##gred
##dy
##ruri
protecția
Liber
activității
glob
Programul
deasupra
Astăzi
grade
extraordin
mail
##OP
împie
poze
##omo
Mit
politici
evident
##uza
Caut
incer
alegerile
britan
mediului
sâr
undeva
##ill
Vie
cumva
capital
parlament
Daniel
grea
live
comunicare
##ribuie
volum
făcută
societatea
treia
ses
cînd
Ze
supravieț
standard
Unul
##ocol
iti
Gi
AD
48
suprafață
argu
##matică
crearea
partid
##log
meta
##alizată
##rori
eficient
derul
zeci
##gră
ben
documente
colo
idei
Îl
spectacol
Ben
aștepta
întune
populației
dispă
##zentă
sune
conferin
iubesc
așteptă
pul
construit
##get
aler
##ock
Gabrie
spună
Paul
apu
voie
întâr
Gar
Lond
zilnic
ileg
evaluare
mând
##ube
distanță
Num
Google
hotăr
jocul
cuprinde
gale
succe
son
întrebat
Vol
Bot
##stent
##old
##pen
întâmpla
Kos
##uț
mintea
##EA
fotografii
duh
##we
utilizat
puternică
natură
celei
##tine
mm
garan
cântă
stiu
artă
Scri
infe
cazare
##vate
ilu
multor
ciuda
##hannis
oară
magaz
finalul
accept
adapt
oc
##itudinea
##gnost
educație
dezvă
##apă
Prote
##vintele
clic
08
detali
cunoscute
Facul
##sel
##gorii
Napoca
AL
Adică
celule
Poți
recon
diferi
reducerea
Ali
Video
amenaj
momente
fuse
Liviu
șeful
subie
plăti
Prop
##mpor
europeană
filmul
deține
studen
atribu
##erarea
##sescu
Regi
##unerea
depozit
##zilor
cheltuiel
uni
moldo
##aliștii
Proiectul
Apro
##sii
##rid
39
înlocu
192
Orice
##lav
profit
Turcia
##tri
David
ast
incen
măsurile
dialog
rit
Probabil
odi
bic
achizițion
considera
##izate
adesea
hâr
Mulț
judici
Sat
profil
bucur
complic
programului
##ED
curi
influen
05
Uite
considerare
suge
respi
devreme
apreci
Dumit
##stitu
infrastruct
margin
decat
Campion
necon
03
legale
kg
##italul
volunt
Ana
Ka
surse
rugăm
ucis
curent
Hotel
##pi
Alte
nav
Îi
tendin
primar
Grat
drepturilor
pericol
devină
sută
Iisus
acumul
##land
Codul
pregătit
##SE
pacient
imposibil
##zonul
iei
examin
Decizia
rev
tempor
semne
regiunea
bucurie
aud
măsura
locului
##RU
kilomet
##oanele
General
##ulescu
##ficat
preocu
precizat
ăla
cî
Piața
directorul
metal
Cate
autoturi
scos
suspen
##ideoclipuri
bul
următorul
uz
DNA
temeiul
piat
bru
Oficial
Muzeul
naștere
cadru
autorităților
expe
##mor
Port
select
##cuv
Tehn
concuren
automat
orele
##uiți
06
Iohannis
pună
dincolo
Cerce
toții
aro
stradă
finanțare
##ctul
străinătate
satul
exploat
##dam
##oma
mulțime
##itari
caută
adevărul
muzica
##dența
nop
disponibil
Fede
actual
pește
juridice
specială
stele
400
Arad
##ez
York
puse
FC
căror
înaltă
iubire
impres
##alii
intrarea
Parlamentul
##ducere
##tis
simpt
Pra
anual
cunoștin
Lim
știți
distin
Ortodox
##uma
materie
refuz
admi
##stur
medicamente
închide
rup
petrecut
interesante
Media
facul
##ezi
origine
##icat
Dob
lect
Mureș
##vor
munte
didact
deven
generală
intera
tab
președintelui
afiș
##uter
zg
Crai
muncii
gândesc
crimin
##șului
adaugă
opti
##lim
Pub
tratamentul
simțit
prezentul
Dia
Echip
contextul
regă
incre
elevi
ajute
progre
term
##darea
secolul
export
pacienții
Fă
Bib
PD
înalt
##ivale
##ctorului
ocu
zâmb
stânga
înconj
concre
somn
Serbia
Obie
Pove
cheie
##ziile
pedep
proprii
Mana
mâinile
##iască
Ulti
apropi
comunicat
150
natura
vânză
Nea
legat
##lut
atinge
Mor
culturale
activitățile
##cătoare
acte
farma
expri
##minte
Pers
Ho
##ATO
vul
Șco
##ding
plac
##niș
NU
IS
vacanță
efecte
tehnic
surpri
recup
fratele
radio
accesul
Sport
încad
##imes
istoric
piese
##rn
fructe
plas
Cunoaște
Gă
obligatori
vecin
ram
Înainte
##turile
Bucuresti
##gres
electrice
săptămâna
##UI
chine
mâncare
industria
Pu
merită
vest
oferite
politica
cuvântul
însuși
arăta
ansamb
numă
zonele
Gro
locală
##starea
##usul
link
rezultatul
reprezentanții
dete
unități
Printre
căldu
Por
##fica
fizică
imi
cărui
##icu
intelect
75
deran
42
imaginea
##seră
apariția
colaborare
lumin
mamă
strălu
##sb
Traian
Biro
întoc
##olă
specialitate
Dom
##osul
Gu
Duh
cumpă
repro
similare
Autori
##rurg
Ae
##iență
mese
Premi
strat
bat
șa
##okie
feti
Parte
cultural
##țel
încuraj
##oți
ceal
experiența
promovarea
Copii
consolid
##mart
SRL
var
presa
##operă
##UT
Numai
Acord
cânte
##ânta
Hol
##sului
boli
procesului
04
procur
Kosovo
44
lucrările
foa
elibe
manifestă
##andă
EUR
generale
povești
sensibil
##ziei
rot
domic
ajungă
doriți
Petru
cerere
gri
nerv
oferte
mișcare
planul
##bon
trăiesc
##stare
întrebare
internațională
pielea
uria
respin
inițial
părinți
Hai
conven
IT
descrie
credință
împărtă
duș
##amentele
impozit
##des
guvernul
secolului
mig
Universității
Băsescu
aparțin
tema
adăugat
Toți
##cunos
##tion
##atic
##rezi
bom
privința
iubit
puține
dl
mut
Jap
stai
trup
Hei
cron
statist
Șe
##fon
Jurn
##mes
penal
vinov
profesional
Char
aceleași
don
județ
observat
afirm
Ponta
statelor
elim
41
Munte
etiche
##hat
ml
cuvintele
simplă
pleca
lapte
atâta
inta
##țiș
degrabă
##furi
parteneri
pose
##xic
externe
folosește
profesională
Ministrul
dispozitiv
##ricii
revolu
##cata
Int
##III
Război
XV
dispune
##ho
buget
anilor
Util
plani
Sin
izol
Ang
dosarul
##nici
##ătorii
scriu
cultură
primarul
conserv
anal
aviz
Internațional
existat
municipiului
tub
##seze
demis
Contin
Peste
43
Dec
medical
##matic
călătorie
combate
avent
monu
##cțiilor
Cristian
asigurarea
Institutul
ghi
engleză
##OS
##ălalt
opre
Totul
55
Profe
publicului
Ilie
descăr
##ell
curat
schimbare
depen
spori
folosind
înloc
ocupă
Ucraina
Școala
##pren
##ano
##EC
ajutat
##ret
##zz
Bulgaria
propor
Adev
##date
autent
##șilor
aeroport
Porn
vizit
aprobat
Sigur
listă
greșit
domicili
##teaza
##osit
##jului
IV
televiz
##odata
##ciei
van
prezen
agricul
serios
maximă
dorința
Directiva
recip
##vele
Capit
principale
Pie
Ke
##sen
##âi
##rita
organizate
contează
caut
pis
corpului
Ungaria
##dica
turn
Roș
plic
##guri
##io
telefonul
Lin
teatru
dovedit
sisteme
elevii
personală
##giul
neb
marca
ingred
treilea
##ficiale
raportul
##forme
exper
##răgu
desfășurat
Ed
##val
constă
Sus
german
cetățenilor
asistență
Ordin
muze
experien
##EL
negocie
șter
numi
diagnost
fiica
uti
Grecia
birou
biserică
apei
Im
bucătă
Gru
##lod
suf
discuție
excele
părea
instrument
marea
##abil
Română
binecuv
liniște
Bruxel
ofi
##gerii
Dună
scen
alegerea
radi
ati
localitatea
##voi
NATO
grupul
Craiova
Inve
Așadar
angajat
inceput
Păi
obiectul
sind
vara
relev
##que
scul
Her
riscul
cas
##andar
opera
##ty
Numele
##oră
militare
răzb
##agă
Britanie
poliție
existența
##siunii
dic
obiect
up
Inspector
restaura
##iba
înscrie
##ctă
voast
Indi
ordon
Dr
##ienii
moște
țig
finală
Slo
Princip
contempor
Tit
##ofi
împărți
stabilirea
Unii
seamă
prezentă
întregi
##TA
##ptele
relație
##ino
dosar
scurtă
solicita
Oradea
adevă
week
##sedin
AP
##ntarea
##dentă
aspecte
optim
##exi
drog
Arm
##iță
47
Bruxelles
##ows
##riile
amenin
meargă
##face
reviz
46
##ricole
##igi
##uth
transpare
diferit
ext
Moldovei
scena
rege
##lande
Speci
relații
Păm
##inci
##imit
##voarea
Transilvania
##red
poziție
secund
știut
Para
Pi
rat
procedura
##cord
Ope
iarnă
proprietate
Pavel
##otrivă
românii
Spania
Mate
Deput
referă
sã
inde
acordă
existente
##xa
vizită
luate
îndeplini
instituțiile
Bur
găz
biserica
##reaza
intelig
bibliote
alăt
cunoscută
veche
##oziția
##țeles
parți
##ley
drepturi
rus
adver
utilizează
CA
organizează
Flo
modelul
pret
fericit
cobor
##let
asemăn
##nii
rost
roșu
atac
kilometri
##spo
Jocuri
relația
Liga
Form
interesul
nucle
dobând
obiecte
Valea
Rezul
epis
dificul
modificările
##atură
##ficate
consult
democrat
scenă
fug
Londra
următor
Nimeni
ign
termenul
adoptat
##ferim
dragostea
vânzare
##pescu
interesant
puternice
Florin
ideal
cealaltă
past
ușoară
Inf
Echipa
larg
sil
fizic
pasă
făcea
##imna
Il
Arh
femeia
##cepe
carie
fierbinte
##ască
obținute
Situ
ume
linie
licit
atrage
##OC
departa
inje
Petre
soft
Una
##rală
profesionale
celălalt
limita
rul
săra
##ocul
completarea
65
existe
prile
Timp
##bra
oprit
alimente
ortodox
pieței
precedent
implică
auzi
##siunile
parteneriat
titlu
ure
##istul
imun
ferm
scaun
##rise
marcat
comunei
Site
##keting
dedicat
##zeci
însoți
##dure
roa
Zile
##itati
tână
locuitori
##ovic
căzut
##cțiunile
##dială
legătura
Internet
experiment
##mina
##bw
explicat
##cuta
insa
pache
românilor
tehnică
vers
##rapie
Citește
medica
înălți
medicală
aband
ridică
deschisă
##tena
Bor
49
corpor
imb
veș
continuat
##no
accep
adevărată
oricare
referi
angajați
legal
##ys
##uiesc
##ish
venituri
##lant
trăit
Cen
Bărb
comuni
Sala
modificări
reuș
sate
Puteți
grave
come
adre
urmând
insi
##dează
întreru
##iera
acțiunile
Compania
voastră
regiune
constit
polițiștii
pescu
##uci
defic
Cul
Plan
##CR
Gene
particul
categorii
intens
sursă
not
Aface
gaze
edu
Omul
Prea
săl
criteri
##vale
cerințele
Lo
confruntă
##ctia
auton
suferit
isi
realiza
jap
Mondial
destinate
##terioară
##ks
oricum
##cina
informează
54
##ău
conștient
furt
întreține
amintesc
labor
proven
depinde
Totodată
vina
Anal
##cătorilor
doamna
hran
Act
conști
minunat
##ovi
##aniile
efectuat
##președin
Mosc
domenii
forță
așteptat
fr
Lum
decizii
permanent
Tatăl
pâ
declan
colect
soc
manu
##xt
vehicul
respectivă
2019
moderne
##sf
naiba
prevederile
aprin
municipiul
##orează
confe
Fam
fiscal
Fun
primăv
haine
ned
cen
1990
glu
linia
##riarh
ulterioare
abil
uite
##onescu
vizitat
următoarea
ediția
Aplic
soluțion
punerea
##reea
instit
locurile
urme
dezvoltat
Transp
vehicule
Victori
Rel
deput
accent
Tul
șansă
##UM
##strul
Iulia
luăm
ST
TVA
Agenția
pacienți
financiară
Trei
##inta
largă
SP
casei
cance
asigure
##țiu
devin
dracu
Bogdan
##mant
Disp
aran
Dem
##oza
dinam
XX
autoritatea
consili
resurse
întâlnește
tinerii
##uga
Vas
afirmă
organizată
color
medicul
Maj
dorim
Cuv
Fete
##șcă
insu
sche
cunoșt
Ado
##mene
agent
roch
##orp
##lon
rutier
zb
autor
reuși
centre
estim
##aram
hidro
##telui
##ling
deplas
##atate
Cas
##formă
recunoscut
IP
Pic
aducă
Persoane
Bro
cuce
categorie
##dina
autoriz
Sur
Proce
##sirea
gura
1989
##lementare
cumpărat
cateva
##cuți
##IB
intrare
##nel
incul
190
fla
nomin
defini
##oarelor
Ange
##oarte
acordul
contractului
buz
##alta
ofere
depus
##gina
##stro
Rez
bicicle
conect
gas
AS
aleg
istorice
##stența
Local
contribuie
frică
Wind
trăi
favoarea
securi
griji
curaj
Elena
corespunzătoare
mete
argin
plătit
bucura
##uză
##mbur
##bie
##stului
51
toti
##jă
candidat
deșe
##bila
mp
##oiu
Exe
##sol
Hotărâ
bil
ocupat
inch
primesc
impune
comen
##nirea
Parlament
Activ
cetățenii
aprec
Lup
reale
##săm
ÎN
participarea
ip
rămână
##ICI
apropiere
secunde
##matice
aeri
adun
Fiind
##oziție
PE
tras
pielii
funcții
##țuri
##vârși
metode
prevederilor
reală
acti
propriile
Camera
##cele
demn
##cian
familii
primea
meciul
hotărât
perfe
bebe
##surile
introdu
deschise
emite
superior
##icilor
județului
folosirea
##uzia
amând
dispozitive
nați
rapidă
operat
pagină
luați
prezenți
analiza
tata
##rină
ocazie
##har
##onez
incom
mergi
publicată
desen
Mulțumesc
##rița
Proiect
trec
##torilor
urilor
oricine
##turii
##ash
aflați
##rorii
Repre
tulbu
simte
##ferente
Încep
regiz
prot
##dor
firma
anumit
umană
Bună
televiziune
necesită
Banca
Ordon
propriul
##roid
soțul
referință
spunem
înv
procedură
Frum
liberă
##uc
dreptului
fusese
desigur
serviciul
##sime
pct
ara
administrarea
mascul
electric
##ficări
52
oferta
##reve
contul
durere
fabric
IM
Jos
adolescen
frate
Net
tinerilor
introduce
știință
gât
Dist
Municipiului
Trat
##ber
imen
unitate
numără
##otelul
Nat
ciudat
deleg
sezonul
Marius
set
Stă
vazut
desfășura
exerc
##US
valorile
totodată
sare
interviu
600
funcționarea
fiscale
Evenimentul
mamei
chip
împrej
sursa
Ti
grupuri
vizita
##core
agricole
dăm
Iehova
explică
nevoia
rețe
pâr
fericire
relațiile
priori
instrumente
respectarea
antic
CEE
ja
echivale
frag
##lează
petro
alcăt
scand
SI
##CE
calen
iubirea
##ntate
Editura
împrumut
##înțeles
sticlă
dimensiuni
Pun
##ctie
aju
AR
litera
treabă
abor
Secre
##stri
modificare
efectele
antrepren
Proble
##basa
##tești
context
Tud
Tocmai
motivul
Popescu
descur
invită
magazine
Basara
rezolv
period
evit
##alității
grupului
sănătatea
colon
bătă
##cedon
volumul
Stan
boală
##tări
lucrărilor
gay
1999
lux
scor
##terin
Prezent
vostru
inse
cookie
înghe
Roma
aferente
##orte
discuții
raspun
lichi
postul
##izează
numește
Râ
##────────
praf
2020
convins
vizu
mânt
Crede
apropie
activităților
formare
Lă
bas
picioarele
informațiilor
acci
găsește
##ătrân
hoteluri
purta
sănătății
##cerea
eval
alerg
confirm
apropiat
alegeri
##șine
##bar
pînă
plăcere
53
Cru
roș
CSM
57
tem
actuale
comite
supraveghere
Fer
Robert
gratuite
muș
arme
##uiască
limită
înregistrate
opinia
tin
difuz
dator
##alea
ambasa
inc
##curilor
Asa
Neam
Part
##inare
voastre
producția
Bră
apropierea
##cările
doct
sigură
mobile
răspunsul
solicitat
produsul
private
##oresc
libertate
cetățeni
realizează
stați
sunat
hră
Odată
campanie
clienților
propunerea
nenor
plastic
dor
Aprop
stilul
reveni
demer
PL
energia
legume
construcții
anumită
durată
autove
limbă
intim
școli
chirurg
toata
destinat
##cesc
##mili
Carol
##scrip
inferi
##șită
funcționare
redus
99
sublini
seria
necunos
populația
penală
implicat
Ape
fotografie
##rești
itali
decide
oficială
părțile
ministrului
informare
##itată
sect
hârtie
simple
unică
##cești
Datori
oaspe
poporului
reîn
evenimentului
aparține
exterior
patrimoni
avantaj
firme
fiecărui
coti
scump
Democ
semnificativ
Jack
pagin
școala
##derii
Bacă
iată
scrise
plec
substanțe
condit
##jelor
centrale
câștiga
găsim
##nie
Ven
Curții
Gră
Crist
##omp
evaluarea
proasp
##âmp
##lubul
băieți
căutarea
ministe
conținutul
pleacă
posibilă
Mot
Comer
împlin
sacri
inimă
poporul
sexuale
circum
Fier
învăța
Unele
recu
og
depla
Crezi
declară
##vață
publicul
noile
fișiere
dați
instituțiilor
##gon
Viz
##ociere
Negru
dificil
Dă
Del
circulație
##gem
Foarte
##inic
trecerea
corespunzător
dezvoltării
##urie
##DEO
lucrarea
tim
Sfin
Publicat
##nia
sumă
etapă
nutri
realizată
##hă
##atoarele
copilă
##ise
64
##șat
ucra
știa
Spre
Comitetul
populare
Cl
pân
Windows
##ărarea
##ons
membrilor
dovadă
##tarul
jucători
Conta
Gol
clienții
viteză
posibile
liderul
element
Plo
CO
duci
civile
Spitalul
AM
reducere
sovie
guvernului
rata
obligația
cărei
punctele
56
##ream
concep
depăși
reme
bord
##ena
##răj
zahăr
Tribun
obișnuit
permit
schimbarea
pagini
comunică
comunității
##late
încheie
Ați
analiză
Mag
ONU
suprafața
Având
dorin
bisericii
Instant
##odor
##ȚI
grad
aca
Mc
chin
minori
gradul
răb
central
acuz
plece
impresion
atins
##CI
##ham
cultura
##oad
șofer
Sfântului
avi
##rescu
legislația
Sfânta
##lină
echipamente
calității
piatră
Femei
##ring
Toată
îmbunătățirea
melod
##tând
reuni
##siona
##izată
acuzat
##zire
intențion
cursuri
prezi
##tene
probe
Dumitru
bote
late
##ungi
expune
189
Mesa
##ântului
greșe
depre
Oricum
drăgu
intitul
##easca
VIDEO
sexy
sold
libertatea
Kla
structura
evita
##ight
##oul
aduse
reven
condamnat
sinte
Radio
Serviciul
Cos
înscris
95
Polonia
formarea
cadou
nas
##ptam
credința
Olimp
implementarea
odih
colegii
Emine
##gar
consecință
Bibliote
abuz
produsului
catol
inci
înșel
##ance
Desigur
ocupa
Stea
ilum
Putem
vedeți
îngrijor
lider
organism
##roc
uim
Stud
Lice
##pți
revenit
ușa
numită
bon
software
utiliza
ieft
întrebă
##ciune
Cartea
trecute
business
comand
##osof
binecuvânt
marginea
Vest
galben
întorc
punere
Vine
bunuri
delic
acceptat
##sy
management
tara
contractul
creste
Vre
##ieze
imobil
seg
includ
standarde
##istică
Sil
##lici
pescuit
părinților
împuș
##amentelor
pr
188
Monitorul
îndoi
fic
original
##alelor
Div
lansarea
electronice
încet
proiectele
incluse
aspectul
Pract
treacă
##chia
Prem
inau
Încer
##oniale
cultiv
Fond
##stel
reda
Gay
noastra
clienți
militar
publicate
elevilor
Asociației
afectează
##CA
##MI
elementele
cancer
hotărâre
textul
încânt
Of
CN
integra
##unda
naturală
by
folosită
##ferendu
constatat
cunoa
PRO
Mulți
intamp
Festivalul
Zo
AF
relativ
th
femeilor
civilă
mal
transportul
Za
##var
prevăzută
##sită
Cana
deschiderea
neap
##deap
morm
ox
străine
85
câr
gospo
totdeauna
linișt
##lica
Aproape
citate
demonstrat
Tudor
##rente
pozitiv
fib
tradiționale
sfin
bolnav
teste
Cip
##iența
juridică
autorul
primește
știam
##peni
mesajul
Două
hai
Vladim
sprijini
##dii
##ood
Stra
Facultatea
scrisă
invitat
atel
##mail
##steri
forța
Dece
individual
##tel
organizații
Lit
păcat
găsească
##buri
##ariile
etapa
##rările
energiei
prețuri
##cire
XI
punem
acordarea
accepta
Ple
Hen
##rimoniale
fig
250
Galați
##TE
caracteri
##itatii
gest
Eminescu
##MA
perfectă
Dor
##ril
Evan
Lasă
Top
buzun
comentarii
##istic
semnal
discuta
vorbești
spani
bran
##rator
aparte
Partidul
consumul
sarcin
pornit
##jeze
clasă
invest
exten
corectă
cresc
ax
făce
marketing
părul
Numărul
capacitate
coleg
Sunteți
chem
RO
personalului
cald
vizează
Sof
iP
dispărut
##orile
##gie
##ritatea
Noul
Bacău
îndre
virt
Gabriel
##parta
Băn
incredi
dezvălu
costurile
povesti
##siți
##țează
##dării
bule
reabil
găsești
comandă
sigura
Interpre
tal
înțelegere
##smul
electrică
Trump
pregătire
##ep
tehnologie
##năstirea
purtă
prietenul
oficiale
Petro
participă
accele
CF
Don
##atice
Africa
capt
prov
##ștept
conver
primii
fum
Ghi
audit
secțiunea
relevante
spăl
##inilor
oferin
frecvent
regist
##stie
reprezentat
făcând
ordinea
Social
ruga
voturi
dulce
răspând
mur
științifice
declarație
medi
vaccin
Asig
vicepreședin
ședința
faza
titul
Alt
Prof
spiritul
Departa
58
Târgu
autost
Partea
criză
galerie
##state
Dupa
Macedon
Mihail
arate
arbit
##ferința
dle
denumirea
culoarea
actuală
##intei
investit
sală
performanță
gun
tânără
##ografia
discutat
##cla
Klaus
festival
votat
Acolo
varianta
##ith
armon
Air
Școl
AT
Apost
milion
Micro
obținerea
Oc
gratis
poet
înte
deplin
conforta
##râ
trime
##lina
combu
străini
achiz
școlar
##ad
##ilul
lăm
Dezvoltare
Moscova
dezvolta
promovare
majore
##elul
comercial
ȘI
inteli
serve
provo
parf
populație
constant
em
noului
preot
Urm
premii
siguranța
suprafe
profesioni
##larea
ton
Ide
##ji
numărului
navig
Emil
Fiul
studenți
intervenție
Den
rig
cada
sora
usor
inculp
afacere
Sistemul
Interne
regiuni
##muri
clasi
nave
Palatul
asigur
##pu
##teva
acțiunea
îndrăz
##iss
Matei
angaja
67
reprezentanți
##berg
decen
##ătoarea
smart
beneficiază
##chiul
##iam
întreagă
##stre
Teatrul
flex
##ovici
##ficării
##PS
deosebire
egal
##ntin
Grup
##DA
##țați
Club
##imi
părere
##ceanu
realitatea
refuzat
##ney
##isme
prezentului
administrativ
tar
deranj
sănătos
##țu
duhov
bucure
##stem
reținut
metodă
relu
##spon
SM
##chilor
mandat
relat
pierderea
partidului
închise
albă
Haide
Ascul
romane
Film
nota
##ortă
prelung
principală
##sula
pline
Elect
penale
Filme
asigurare
Marin
##cutiv
documentele
show
##aneu
##iatul
spiritual
cooperare
##mântul
apărea
aruncat
##cțiunii
persoanei
țină
nevoile
înm
încerc
##30
##mulț
înregistrare
##ceput
Botoș
componente
##itați
minci
slab
stabili
Sy
Buză
cunoștință
lucrul
table
Une
arata
ghe
Păsă
ceai
influența
##fie
##zece
##osex
59
##deze
aplicat
dispus
800
##stanta
sportive
##vis
Vei
sume
Dina
concept
francez
parcare
##pro
##orld
stres
##ozitate
Regulamentului
generație
petrecere
##ondiale
învață
pedeap
Direcția
dublu
liceu
##orb
Popul
indică
Comitetului
##biei
citi
Sar
introducerea
Gala
##cină
Bist
importanță
Lea
grele
grija
legislației
##omosex
Mastur
eliminarea
contine
pachet
Arge
regimul
țes
fasc
dese
neapărat
tan
aplicații
ful
locali
societăți
aflu
nebun
recep
creativ
fl
teamă
##ULUI
famili
neagră
apărare
ho
##ografice
Poliția
semi
trag
rădă
țâ
ascuns
centrală
asigurări
Grig
gură
Noua
deri
obiectivele
ședință
flux
stabilește
cape
apartament
internă
asociate
individuale
Sha
specialiști
întî
acordate
căutare
transformat
dre
urmărit
conflict
economie
prezentare
jocurile
bazează
ridicate
condiția
utilizatorilor
Căci
adulți
negativ
sentiment
băiat
##uirii
##alim
Gor
Declar
susținerea
academ
admite
citesc
Dep
considerată
competit
Mel
120
utila
Put
porți
vorbă
##zil
construcție
Austria
tone
##ski
popor
##ony
##uat
pietre
##trem
ruse
Peter
boala
Elve
definitiv
##gor
știri
efectuează
prezentei
##șn
##fele
Iub
decît
negative
judecăt
##sac
##șească
schimbări
insufic
marele
##rite
Ovi
creează
##vant
##andu
##rurile
lichid
fondul
pasion
ferea
pod
Tă
Educației
recomandat
##gare
cărțile
amenință
salva
pronun
##ătatea
Times
varie
Uneori
altora
purtat
nevoi
##serv
manager
lac
##oga
##ologii
împlini
primite
arta
Micha
gamă
##nd
##zeze
îndrept
##udă
##lome
apele
Bol
##buc
Mult
Muz
nis
droguri
##chea
66
##diilor
cheltuielile
proiectelor
educat
limbi
inva
Americii
viteza
celul
bea
Bos
##vil
comunitatea
Ero
localitate
evoluția
prevenirea
##24
LA
ducă
notific
principalele
religioase
eficientă
##imă
implicate
##SP
climat
protest
entuzia
##if
bucătărie
Energ
Star
ini
##duit
sublin
Super
despărți
cuprinse
Cha
cheltuieli
Frank
Ior
Er
lucrare
franceză
potențial
##ts
##stan
factori
favora
##stia
restri
perspectiva
Botoșani
##udici
oferim
roșii
##yer
trupul
##ick
acelui
##phone
potrive
proba
##SS
didactice
##onală
dispozițiile
îndepline
Centrului
competente
inaug
cra
##uării
evenimentul
Viața
ol
importanța
inclus
efectul
percep
temperatura
sfer
deosebită
##cineva
German
##top
desf
țăr
diferența
Grupul
aceia
modificat
Wi
##FA
vop
187
##stal
tablo
vreți
scrisoare
șanse
furat
taxe
presiune
mix
Partidului
suferă
cot
elega
preferat
parale
rede
##arma
tratamentului
manipul
întrebarea
dăru
prăj
efectuarea
anterioare
evre
reguli
mutat
mane
medii
prinde
instanță
exercit
Transport
puteti
tehnici
imperi
răni
cã
Fac
Cătă
off
studiile
sună
Gale
##ude
ies
##anci
pomp
Fată
spectacul
singuri
Direcției
legată
bebelu
germană
Ierus
Sorin
Evanghel
##acolul
toamnă
schi
cos
dezamă
##otice
cazurile
scuze
simpli
Câmp
##idenți
vorbească
pisc
bucură
muscul
morții
căutat
hand
Orie
imobili
##rute
organe
##mulțum
superioară
necesitatea
mesaje
rețeaua
rar
arma
Vâl
Cazare
##tan
sor
Read
asum
administrației
promisi
recunosc
##uim
interzis
##ical
exprimat
medicament
incon
evenimentele
tea
##ionul
##cau
##21
referendu
CON
Scu
oriunde
tent
##enii
##zu
Copiii
##gaj
ridicată
plăcea
oricând
Eugen
News
comportament
teore
Răspun
restaurant
cabine
dovede
carieră
personalul
faca
colegi
practica
terțe
comparativ
instituției
subiectul
Academiei
atribui
ouă
Justiției
bron
șansa
statutul
păstrează
alegere
atâtea
obligatoriu
direcția
Prie
Cineva
##zinta
Justiție
##teni
Marian
pătrun
organizare
Fra
ascunde
##țire
suspect
prețurile
bugetului
Ierusalim
##her
##fir
participare
credem
Sexuale
Imperi
COM
spuse
companiile
Black
retro
vârf
Teen
eforturile
dispoziția
rau
combusti
esențiale
album
prăbu
întregii
campania
##ocam
urban
ofera
domnului
introdus
##ronom
arhe
Premiul
sără
zgom
fișier
integral
instituție
încheierea
dejun
scopuri
ese
altcineva
Marii
Deoarece
Urgență
cariera
max
republic
dureri
terenul
Vladimir
etape
##neg
directă
iese
Primăriei
subliniat
ură
##SA
Turi
Michael
eficiente
onoare
pension
pădure
codul
albastru
Parche
Aj
186
Men
##crimin
interese
parțial
fetele
linguri
##dro
Scopul
##cy
City
iasă
constată
degetele
diagnostic
##peut
##my
Ros
munc
masina
administrative
tat
preluat
##aniilor
trăim
weekend
##oriu
bogat
perioadei
considerate
trăiește
Nimic
preocup
cami
##gure
##roportul
##stine
perioade
treze
##ande
contracte
brut
respectă
cupt
Indust
americane
invitați
privată
cumpăra
Cam
abu
##rind
##âie
comentariu
rand
Gratuit
##wer
rapoarte
primului
parlamentare
atras
Tip
Ambasa
1998
istoriei
acceptă
Pune
##ficată
feminin
Începând
PC
apară
aflată
turistice
##scrie
așteptăm
mis
##geți
1000
confirmat
profesori
poezii
Data
forței
deop
înfă
electro
##cească
artiști
Baia
##pera
Var
##mentează
##ington
paș
Interpretarea
esc
##smului
voc
##urgh
##roasă
economia
motor
măsurilor
comparație
felic
activă
fine
comunitate
ăștia
capitolul
menținerea
Datorită
spații
ind
Aceștia
contribui
alea
International
##țurile
Dans
Maram
evacu
Constru
rezolu
cantitate
Mine
Securitate
Vir
61
Rusiei
lase
capabil
răm
ascultă
contest
partide
sun
consilier
cinemat
părăsit
conduc
slujba
ieș
polițiști
aflăm
identitate
prezentarea
normele
guvernament
omule
fanta
revine
zăpa
determinat
încercare
culturii
spă
##uiește
##oo
Anglia
Home
##cțiunilor
##tica
hol
standar
ajungi
specialist
conv
chemat
păstra
răn
conceput
remarca
spectacole
găsiți
perman
stre
bucuria
Stri
guvernare
reține
adânci
##matricul
resurselor
##hei
##oaca
clădiri
utile
jucător
DN
UP
clipă
tatălui
Sănătății
morți
##ocurilor
##EG
##zont
săvârși
preala
Nov
##hor
Citeste
Fierb
##gub
Mad
discre
moldoven
terori
amân
Polițiștii
Țara
fiți
efectiv
fiscală
She
coș
vrăj
modal
pof
coe
sincer
condițiilor
##gând
hepat
jurnalist
civiliz
conexi
luată
arte
##znic
##bet
lungime
Lig
valor
tron
Poliției
##qu
toamna
biroul
revista
voluntari
metoda
consta
magist
Asia
ajungem
plătească
profund
##verin
sarcina
##urați
Sân
întregul
juridic
independent
secole
nemulțum
Bbw
Croația
Noa
line
răma
viu
legen
tort
înțeleagă
potrivită
Bob
##rând
Eram
presedin
##igen
##lele
vali
pusă
inainte
esențial
##jute
unitatea
intervalul
prezinte
isp
puțină
##cționat
maximum
viol
dreaptă
abordare
##oză
explor
pământul
discurs
atitudine
obligat
Steaua
marile
Sara
soi
##nes
îngro
îndrăg
cutrem
ipote
os
schimbe
amândoi
Ploiești
cli
##xe
îndoială
##anca
misiune
##iep
niste
lași
Neamț
gândul
exter
decizi
bere
Majoritatea
separat
##izării
vândut
##umele
ire
Lip
Colegiul
bet
modernă
##OTO
Lucian
Patriarh
majori
Rich
radic
sistemele
administrare
##rel
curtea
fan
greșeală
##bilității
comb
căpit
##ceni
##CT
sul
trezit
reședin
##chete
executiv
furi
##wnl
însăr
create
confort
aplicate
planuri
romant
automo
capitala
##țiunea
bor
drumuri
veniturile
competiție
determina
școlii
tenis
record
indicat
născu
cuant
forțele
manual
Săn
India
lo
acelor
##nera
primei
##veze
Plat
ridica
asigurat
##onald
Luca
ed
malul
##ricol
observa
europeni
victime
##IR
start
conferință
utilizați
##nire
student
portoc
sfaturi
anticip
meciuri
##cam
##opere
##aliștilor
bărbatul
##inarea
Nou
##zo
formează
##ierele
Bre
publici
regulile
nim
mâini
PRE
proprietatea
##gasm
Fol
##gog
stii
beneficii
trupe
piesa
puțini
##indă
Pur
abreve
cert
brân
părintele
negli
minut
linii
##ctii
##alizează
##pres
Bucov
Rezultate
lupte
satului
##zării
lipsă
bătut
intal
rusă
actele
ico
##sire
împă
compro
adună
revol
Cit
72
filmului
##ocă
My
tehnologii
omolog
Ir
cuplu
alegerilor
##king
Societatea
Docu
autom
Ru
concert
plu
planurile
participe
roz
lucreze
##ionat
uităm
neregul
economiei
poliția
##ness
Publice
Domniș
Acasă
Uniune
chimice
gel
multiple
urb
politicii
impresia
naturii
##wit
hard
##sbi
##hy
pregătirea
Aure
paragra
##sal
animalelor
rezolva
##inea
ambala
Matrimoniale
##fu
ciocol
##ienți
##mm
Han
premiul
cît
mira
eventual
fundamentale
încrederea
Mac
##soft
victorie
cura
accesibil
participanți
Externe
mențin
bucurat
evidență
metod
desene
aranj
firmă
crească
National
68
paroh
##kin
96
parc
modalitate
dragi
Simona
militară
##rar
veget
plajă
tradițional
păc
filosof
graf
întin
184
62
legit
Tub
pași
deta
iarna
77
citat
tehnologia
cerea
tole
urcat
avocat
mass
metabol
strâns
Wal
Informații
pozitive
76
Păsărică
pap
##hone
dan
tratat
regele
Obiective
recol
lipsit
critic
supre
însărcin
Autoritatea
##hel
Cultural
HD
patron
greșel
responsabilitatea
##seamna
##cher
formată
Tratatul
crescu
Leg
înființarea
##rine
votul
normală
superioare
##tarii
ansamblu
câștigă
Tar
sfânt
transforma
Berlin
procedurii
Memb
##stii
rezervă
occident
Serviciului
sonda
Ordinul
motivele
secrete
cantitatea
problemelor
Aveți
##mie
înalte
stadi
deco
Americ
zero
primească
convers
proteja
fur
##ocamdată
Ian
regimului
fiecărei
rugăciune
##MP
##nei
Grigore
deținut
cărții
fericită
calculator
organismului
specii
ușuri
##ovă
negre
##șor
licență
##gas
##omă
mont
gl
##ologiei
pt
securitatea
îndo
prep
șoc
armata
sinuci
intru
##tite
##hia
##ofol
inu
auz
##unedo
Mus
videoclipuri
practice
identi
Mont
click
Ovidiu
tabel
pauză
han
neo
zici
##dian
Biroul
răs
##acții
efectua
bacte
aprecia
Tex
cetățean
Consul
##ors
zonei
puterii
##oastra
fundul
înțelep
dovezi
Servicii
interesați
Sexy
Pan
inițiative
##our
cererii
remarcat
premierul
spirituală
practici
stabilită
Iniți
părerea
Dori
pon
talent
pretin
țe
americani
Web
Târg
##ituri
nec
pensiuni
scăpat
Fondul
îndel
slăb
utilizator
schimbul
condusă
furnizate
speranța
continue
##opol
star
distribui
proceduri
Deputaților
Xxx
reve
Buda
##orial
##gel
versiunea
prilej
eliberat
căldură
dorești
acid
aspi
website
determină
doam
##oarei
gânduri
arestat
Dol
raza
amăn
gama
##onim
scorul
utilizării
părut
Schim
temă
dina
amuza
##pun
vulnera
##zări
asisten
dedicată
email
Dinamo
Cristos
Japonia
180
Egi
impus
valorilor
ing
misiunea
##organ
wi
interesele
sistemelor
îndemn
World
##ințele
98
Austral
foame
voce
63
job
asociat
Poliție
##mâna
##atează
##mântului
fals
joace
Temp
diplomat
interse
păsărică
Mitrop
69
##seste
##vată
faptele
noii
gand
localității
urmărește
##12
clădire
##TI
##dească
excepție
situației
Primarul
datoria
mize
acorda
Iz
##BC
inimii
umple
cuprins
Azi
dim
apost
piesă
##per
1991
Videoclipuri
dublă
##bată
domeniile
doamnă
TE
acționează
Comunic
accesorii
puteau
Max
povestit
recente
Free
compone
informație
##ye
trib
##uarea
învins
eșe
##junct
gimna
bilete
adoptarea
##orești
picior
##fat
Atât
Pite
##liam
78
Argeș
nopții
impozi
credite
Fostul
specifică
700
##ogen
regre
implicați
scădere
apreciat
Belgra
##dite
##wnload
rob
Acordul
argint
Fii
sălbat
##ilat
limbii
parcurs
depuse
clari
Dăn
popular
##ges
siguranta
discută
economici
groza
colectiv
Turn
Filip
interesează
sărbătoare
##sk
Multe
justiției
##qui
##post
##țește
leagă
lăsați
rare
##rolog
sem
preve
reprezentant
##țând
Ada
amplas
reacție
arăt
1992
serviciului
Vene
gravă
industriale
unghi
Stre
Android
porun
je
Wash
##stire
Adam
##onic
Cup
obsta
Parcul
turism
##îndu
Phil
##bere
artist
prân
gândești
EX
fostului
căuta
##nci
construcția
##cule
fre
Ah
##orel
personaje
destinație
Tulcea
sfinți
xxx
##ziune
bijute
sufletului
albe
patrul
dedicate
bărbații
prezidenți
vizibil
Van
plicti
97
##judici
poarta
brand
Kar
BM
poezie
identificarea
FOTO
procent
reprezentând
vremuri
teen
Adul
89
##alei
impresiona
castig
##REA
ceas
##cându
##intea
interesate
piept
funcționa
dosare
limitele
excurs
tun
afectate
##ciunea
păstrat
intensi
##arca
combustibil
caldă
France
Jean
nef
ble
Wa
construirea
rug
puteam
creșterii
nede
1995
1996
##ografic
trecere
##zan
credeți
merit
Fierbinte
sexual
neut
##nist
rezistență
lot
Hor
cunoștințe
țărilor
William
Cupa
atmosfera
uscat
referitor
casele
jert
actul
##ăuntru
##alizării
anivers
rugat
##ătorul
construită
Canada
1997
folosească
global
mica
Jul
##ouri
Clin
înj
Hotelul
##lot
referire
Viena
producător
principiul
spa
Mânt
##rt
Buzău
##eli
organismul
miros
distrus
##gue
Instantaneu
##yn
gunoi
smartphone
veterin
ilust
vile
##sări
durerea
Ultima
gasi
corespon
ot
țâțe
jocului
ieșire
South
comunist
ușă
##terii
Domnule
sarcină
spuneți
Cătălin
##ela
soluția
fosta
bucăți
##sării
resursele
eliberarea
reglementare
pantal
##ferate
joci
cuiva
##uel
veti
gea
Hotărârea
celorl
parcur
##ming
caracteristici
vib
Blu
##usi
acoperă
Pres
salvat
Autoritățile
memoria
televizor
Lumea
1918
##11
electronic
principiu
aparat
mae
tradu
Fundația
Cere
situată
imprim
Strateg
normelor
##unghi
config
##tenia
lunar
firmei
##DM
confidenți
întreba
za
întă
##eață
Revolu
desă
##risă
precizează
vita
flexi
decenii
Die
telefoane
Glo
călu
petrol
prezente
propa
renum
##bră
Problema
##alin
Coc
OM
genun
Anim
Raportul
puri
##caz
Mănăstirea
Poe
înălțime
preven
verzi
pregătește
complexe
##dura
miro
afle
aplicabile
##âm
asculta
curte
ucraine
vizibile
vesti
ina
Institutului
numero
##gaz
programele
##oții
nisip
depozi
84
atacat
Log
îmbunătă
vânt
ilegal
##bac
întări
88
adunat
concursului
##PA
horm
companiilor
##inica
##INE
educației
you
CFR
Agricul
locuințe
renunțat
depășește
singure
Pier
aust
întâlnirea
acelasi
Sue
fondurilor
spati
obligați
opțiuni
##itului
legile
##37
cheamă
obțină
More
taie
##ștea
Imagin
Oare
înlăt
Duhul
incin
ție
Satu
permanentă
combaterea
articolele
continuu
Revi
bancă
partenerii
interzice
92
##tenție
costă
oricărei
pâine
##inge
anumitor
deschidere
Hunedo
semnul
clasic
##lr
concursul
soție
iubește
parfum
profesorul
însăși
Giur
compens
publicitate
Ten
##iev
Bran
##tire
văr
medici
adverse
surprins
roșie
Lib
rezultatelor
frecvente
adevar
relațiilor
##fal
##țiune
##șani
episcop
articul
surpriză
versiune
cle
dispozițiilor
premieră
utilizatori
micul
Amin
eviden
ane
ieftine
excelen
##uman
##dări
calificat
Cultură
operare
dezvoltă
așadar
dumneavoastra
##PC
##ies
##iari
Utiliz
universitar
fire
biserici
##arile
învețe
bancar
transformă
rânduri
You
zid
Franței
profesionist
restaur
##nul
furnizarea
Bri
constituit
##șterea
tribun
Apel
##cui
##ward
domiciliu
##rațiile
pensii
ucide
obiectivul
teri
##hal
##fund
Macedonia
arest
pota
unice
butonul
identificat
regionale
dimine
nevin
interesat
sculpt
##mile
##ONA
Doi
electorale
##onii
americană
căsătorit
##ptop
Solu
variante
studiul
##icale
Academia
înțelegi
Reprezent
presei
strict
valorii
##zar
##stase
vocea
desfășurarea
Mal
74
științific
Lege
Hale
respins
TVR
Andreea
clară
##țeană
masaj
Apple
##sați
autovehicule
Evide
Partener
Stiri
##aria
Popa
divor
scandal
Piat
nivelului
##mult
##ografică
Franci
verifica
bib
bel
literatura
Civ
##uță
comprim
##iscopul
computer
industriei
sector
RA
Bat
##oneză
##denței
maturi
dinspre
dint
Hunedoara
maghi
##bore
##arm
Dintre
Isa
tero
##rala
bunurilor
##bișn
afecta
##ogă
der
chestia
Conven
călă
##ciuc
Faptul
AG
invent
similar
Ef
Acasa
##star
cutie
pleci
cerem
proviz
##iel
majoritate
rezultă
laborator
pereche
recensă
tox
mile
scurte
liderii
inițiativa
##usa
procedurile
alune
stran
##ID
principiile
adecvate
portofol
invoc
armă
alegi
discrimin
neuro
bazat
critică
aplicația
Stai
exprimă
since
sfat
agenții
pregătiți
insta
Res
scară
redusă
utilizatorii
păcăt
elaborarea
Cand
Director
iPhone
Med
răspunsuri
războiul
banca
libere
traduce
unitățile
socializare
declarații
valabil
##mid
##stări
Script
Agenției
niciodata
posturi
gratuită
CD
administrația
pred
sav
##lurile
compus
propuse
modă
Post
instanța
oarecare
##vii
##sco
Masturbare
refugi
87
rein
##șca
Institu
Bet
Book
sch
refer
citeste
angajații
impactul
acei
pip
culturală
aparate
delici
fit
dobân
producători
##sung
costuri
flo
Len
reacții
##ardă
Imagini
##nelor
##deri
extraordinar
aerona
homosex
aerul
##tiți
##cteze
fugit
strategie
Australia
citește
câine
Biblioteca
##wood
##păt
##URI
Lat
scăpa
nordul
distribuție
grădină
##uze
Bene
reparti
##metri
dele
omorât
succesul
semnificative
ultra
Lide
##ariul
Băie
acasa
finanțarea
##cini
ușurință
BN
##cani
Cated
Manage
războiului
gestionarea
##cționează
##utăți
scot
trico
complete
Cristina
##soarea
##lash
înțelegem
tabă
Dl
XIX
ofertă
##gariei
neplă
monitorizare
amenda
inițiativă
##sare
piata
##cor
##itei
implicarea
##redit
Ane
influență
suficiente
rub
diferită
sexuală
##bri
##xie
termeni
inițială
Vâlcea
adecvat
respecte
pilot
##lope
stop
dovada
autobu
##iau
Vaslui
audio
##ierilor
Maramureș
Personal
înfrân
Tribunalul
Hal
studio
plăcută
lasa
prioritate
pierdere
însu
##arăși
animalele
părinte
##cic
admis
comunicatul
cheltuielilor
creștine
taxa
Artă
mâncat
dumneze
Business
##matica
dimensiunea
##jan
orei
gasit
Instru
##ista
##ror
autoturism
fondurile
uiți
asas
durează
populară
ierarh
aveti
Decembrie
##ptease
Măr
completările
orizont
numere
##itenci
sfâr
animal
##țească
Pitești
79
Democrat
stătea
caracterul
oferind
har
Sele
experti
##unta
NE
##kov
ingrediente
jandar
frumusețea
minune
ritm
71
directe
organiza
britanic
adevarat
preți
##dire
Plus
terapeut
Tro
permită
##uare
obtine
benz
totalitate
circu
Statelor
Washington
##restre
amor
securității
cadouri
medicii
imedi
partenerul
##odia
cercetări
Părinte
##inescu
specie
##dui
Lista
##out
afecțiuni
progres
frân
folosiți
prest
Spi
##tirea
fază
##sif
##ovan
##los
declanș
filt
primăvară
conferințe
distruge
Adevărul
organizație
##sbiene
sosit
oricărui
pasiune
sac
reamin
Camerei
dezbatere
CJ
##uper
eforturi
criterii
noti
##scar
##itive
privesc
##onezi
potrivite
Cali
trăiască
rezerva
##umblr
bri
Auto
manie
faim
turiști
peisa
Rot
verifică
propuneri
unității
greutatea
devenind
legislative
Festivalului
Toa
studiat
întreținere
absorb
bara
funcțional
Înțele
CESE
Conf
Cump
ONG
##ORI
acoperit
defe
ital
cata
Învă
întreprinderi
PS
langa
ucen
întreabă
argument
secundă
dispari
Moi
stie
Regele
UR
ingine
scăderea
ții
nenoroc
James
Portug
Des
zâmbe
perse
##unere
Mie
ceară
studenții
##ilie
sângele
##iversul
clare
motoc
înceapă
##sese
##cus
binele
ținând
privi
##mnei
Dumnezeul
consumatorilor
procurorii
ocuparea
##băt
autorități
menționată
##osea
##ctivul
185
##iniu
educația
Ligii
lacri
##ctivei
FI
noilor
ultimă
##cal
unu
pregat
##șești
Federația
baga
comportamentul
##ĂR
frig
exemple
paralel
##istice
Aur
miere
##EI
adresează
enorm
tradiție
perspectivă
Resta
componen
militari
direcție
Tră
ampla
tum
##tiri
Microsoft
proprietăți
Jurnalul
Bistrița
Ulei
86
Elveția
construite
Dacia
divers
##orup
acțiunilor
plo
provocat
deciziei
Romaniei
Particip
exist
Observ
proastă
pragul
ofiț
varietate
note
cooper
##ienilor
Biblia
extern
##zvan
Liceul
##amine
Munteneg
Romani
scriitor
Calea
estul
excelent
Putin
ALDE
amintește
inam
Milf
Corp
pist
inițiat
prelucrarea
înmatricul
omeni
creștină
cumpere
proaspăt
tai
##beș
soarelui
Fri
salariul
bănci
inund
Cuvântul
##mir
Folo
##ătorilor
vertic
Ciu
Călă
false
##icului
facultate
##data
minime
desfășurate
out
îndeplinirea
Centrală
revin
##time
Dunării
atare
organizației
##fun
utilizată
concentr
infracțiuni
finala
clubului
prețurilor
inspirat
numesc
reci
Sk
73
campaniei
structură
simptome
kilogra
##stează
deosebite
PIB
asemănătoare
ok
numarul
locuitorii
adevărate
treptat
Consi
##vara
Povestea
deal
strate
prestig
##ștrii
aparatul
sudul
##izol
Cot
##istan
Singure
standardele
confirmă
Dane
##uali
free
##utie
brusc
Arti
asiste
Fata
adoptate
##olii
Piatra
Samsung
Trebui
scaune
Belgia
Cir
rem
cereri
Zoom
##EM
normale
copilărie
scape
manev
Leon
combinație
operațiuni
structuri
livrare
PDL
Olanda
criza
vad
##vas
doza
mulțumit
##ibi
sfăt
Valoarea
Indiferent
##itabil
Episcop
CU
neam
Materi
memorie
sort
##menul
poliției
învățământul
asociere
Negre
Bil
Orgasm
prejudici
formați
##itării
Bucu
Istoria
ploaie
pahar
propunere
love
Dobro
Fu
Las
mijloacele
Park
eco
bogată
contribuit
amestec
ameli
minerale
Arte
##stein
##ȚII
apucat
fero
##IF
minunată
bazate
programelor
##sche
##comun
autonom
vieți
paginile
82
Egipt
circumst
subiecte
țintă
Nr
Gri
personalitate
intri
Afacerilor
Inspectoratului
suplimentar
digit
eroare
##ientul
ating
blu
capitol
chestiune
titluri
rănit
periculoase
moară
spectacolul
Mij
unuia
zăpadă
creștini
##bește
frica
întuneric
intenționează
consumului
Victoria
simț
Acces
folosim
laptop
deterior
producerea
geam
more
construi
imig
pacienților
focul
##view
##day
##cționare
grăsime
toc
Capitale
##liei
explica
frigi
Budape
##CL
pale
ambul
goluri
Practic
##ormânt
##dicap
1994
carbon
Lei
actori
##rak
masculin
Wh
##tag
##țesc
Săptă
medicului
hainele
Regatul
declarația
##ico
reușește
variantă
##coș
responsabilitate
banda
înființat
profesioniști
științifică
diferență
celorlalți
##șescu
Coment
atît
solicitarea
grăsim
teritoriale
##lay
##UG
dezin
carnea
nar
termină
##stere
emb
##leiul
Sor
reduse
depășit
##venții
regional
Detal
rușine
mește
pică
ser
consolidarea
vârful
##ician
consemn
lent
expi
Locale
Striptease
Veri
impul
Spor
îndată
obose
desfășurare
##reaga
credincioș
##alizări
statut
Apa
suferin
Simp
dige
##ițe
##ismele
##dorul
obiectivelor
crist
sent
Maicii
promova
##bilități
Rezultatele
însemna
deciziile
Ful
tranzit
corupție
relaxare
sectorului
Apără
opțiune
Vede
sănătoasă
##ht
prelua
94
următorii
producției
plimbare
Apropiere
Ren
ROM
înși
vea
anuale
forum
Ulterior
Marele
Găsește
reclama
Bon
cob
Vis
##ÂN
sarcini
băta
bio
rezona
chestii
transmise
Aparta
judiciar
ateri
Mark
rupt
##meaza
##otic
end
##zer
documentelor
așezat
##ușă
încredin
informatii
frontieră
mac
baz
îndrum
amintit
Mas
gla
Peri
##tară
indemn
Contact
##IZ
cruci
Capitalei
PRI
factor
provocare
retras
filoz
indis
service
Culturii
placut
emise
Masa
deplasare
cadav
MAI
speranță
consac
Vineri
lucrez
Liturgh
gândim
căsătorie
ignor
descris
forțe
aeriene
doză
preaj
suferi
vorbind
##chile
ama
experți
##sez
impreuna
frații
##tiile
evenimentelor
predic
##diția
prag
Trim
gândurile
vaca
3D
gustul
alum
scut
privile
Donald
incident
##alizați
familiile
prevent
metro
regulamentul
iniție
traficul
Ken
Core
Foc
cursa
periculos
bolii
Sale
Ceau
##ftin
locuiesc
Red
musul
lăsăm
rambur
continuarea
întâmple
112
crimă
Cab
nunta
demisia
Științe
cule
localități
desfiin
##iști
eventuale
multip
##ntii
magazinul
comunicarea
istorică
##itele
unt
iubirii
soarele
Iosif
##cilă
inseamna
dificilă
raportat
advers
literatură
##ERI
aerului
##unarea
prânz
umil
atingere
identificare
îngrijire
norme
preparate
arde
ofițe
Sănătate
stâr
veniți
Fir
Halep
creeze
datorează
BMW
glori
taxi
recuno
Zona
arteri
administrație
enume
religie
Vran
antrenor
cosm
Abia
supus
130
platforma
Istorie
astazi
perete
##izeze
93
JO
dirij
Prezentul
pit
consulta
interioare
incendiu
izbuc
ideile
Tudo
implicit
despă
tranzi
frumoasa
selecție
temporar
actor
##ras
##țenie
gros
justiție
indire
bucată
întâlnesc
Proprie
cooperarea
cartierul
##mani
Braz
cauze
Giurgiu
ferme
puteri
##scris
Arhiep
săptămânii
##șele
târg
cantități
One
Finanțelor
##ationale
Vechi
licitație
VIII
copa
menționează
ființă
91
Ascultă
studenților
autoritate
compozit
răbdare
condiționat
Dimit
Cent
Antena
Fotbal
atitudinea
##perea
anunt
BiH
drumurile
Martin
blocat
##soara
tăiat
monument
Lun
premiu
##urări
analize
##osi
prospe
biz
##inul
##gentă
Tinere
demonstra
Intr
##ivi
Etiche
Life
Cart
pet
aspectele
electorală
execută
regelui
##cept
participanții
##ziere
demult
clasice
##von
vas
##omi
cursurile
împu
cetate
##ev
##chela
scria
lovitură
interesantă
##impotrivă
reus
##direa
##stente
PR
rezervare
dulci
##VA
##ott
Părintele
oțel
pregătită
exercițiu
Wien
gândeam
oce
dragă
Vorb
reduceri
rezerve
partidul
apărarea
cade
concluzia
intenția
cunoști
afacerea
Comisie
Campionatul
##dale
volume
##rant
județene
handicap
legislativă
cereb
străzile
ghid
dezvolte
antreprenori
crime
experiențe
trimise
refor
înregistrarea
##hot
##schide
##EST
##dagog
##sari
atmosferă
adorm
totalul
plecare
spirituale
cardia
preva
Dâmb
păd
manifest
##atică
imaginile
##riți
##tările
mondială
Carmen
lipsește
Familia
##yle
turneu
obligatorie
generații
afectat
Autor
materialelor
##viu
suver
Oric
##cește
aprobă
Înce
împără
##ovița
emoții
kn
reușesc
Adoles
materialele
simțea
##cătorului
83
##ionare
Poze
##rapia
relatează
##oviște
autorității
detaliile
întinde
dezvălui
ieftin
##PR
concrete
marii
Ideea
nuntă
##sov
Statul
avizul
diavol
adaug
##pede
##vere
##metru
treci
##oterapie
patra
Buna
##ntaj
departamentul
vânzarea
mișcarea
școlare
polițist
necaz
Pana
##oj
placă
prelungi
bonus
armată
afli
alternative
executarea
##besc
Căl
făceau
deputat
obligațiile
reciproc
modului
mona
simpto
încălzire
muzicale
##chezi
##ps
nes
ritu
scade
Inspectoratul
##țite
110
integrarea
reprezinta
##ntal
stabilire
solida
precis
Teodor
reface
dac
înăuntru
id
Procu
acoperire
##orupție
terenuri
luptat
Mondială
Ofici
spar
proteine
Laura
##atorie
Altfel
ming
Sâmbătă
autostra
corecte
Complex
CH
Unirii
secretar
interioară
##ȚIE
##ESC
completa
Ivan
##ași
Trebuia
clădirea
##chen
DA
Neagră
impuse
Severin
obligatorii
##dită
desemnat
străzi
recomanda
bilet
artistic
##IST
Christ
provoacă
ars
supuse
Ceaușescu
suspend
cerul
function
copac
Credeam
inspe
Luna
##fen
Lau
Caută
lumi
verbal
Internațională
##sme
virtu
Acela
piciorul
##oxid
Pământ
Sind
aparținând
adânc
zgomot
juni
neput
adăpost
prezentată
##rași
vent
plătesc
Hel
comparti
vânzări
Integ
Solic
Unirea
##way
Case
Avea
adoptată
##fax
artistice
##oarce
grație
##ronic
gândi
abandon
mănăsti
Stră
principalul
anchetă
memori
##comite
RM
mănâncă
amiază
##alie
colecție
Suedia
întoarcă
Mexic
rați
OF
disponibilă
durat
reflectă
uitați
Departamentul
prelimin
SET
bazată
Coop
criteriile
##mal
cana
##gate
Ăsta
controlului
apartamente
înfi
cort
candidați
banilor
box
##fia
cioc
organele
Nați
rapide
##rută
cinste
##ous
infin
Accident
##reună
finalizarea
Vâr
principii
trecutul
anterioară
îmbogă
executare
bandă
demonstrează
Răzvan
licen
frunze
bineînțeles
##neri
##fav
ascunse
##port
văz
neglij
străluc
moale
raf
beneficiile
invers
costurilor
Mode
extinderea
Regist
prietenilor
Protecția
despăgub
funcției
ecu
red
trimi
intestin
Financi
insol
arip
rețin
certificat
det
prietena
Locul
incep
obse
arhi
salarii
##odic
##gerat
caractere
mărf
##ibii
##gerile
sexul
cov
Bote
##urării
termina
##cati
Jose
hiper
sme
plecăm
produc
interval
îngrop
sfar
așteptați
inflam
brows
Muncii
Clau
îndrăgost
Trata
##scop
echilibru
legitim
Evident
cânt
elimina
bla
##osa
##întul
expoziție
##ografii
##nam
instalat
Juri
Chat
adaptarea
##gy
Belgrad
copie
##ajului
provoca
traseul
contribuția
orb
lansează
județean
Em
mânca
triste
judecat
rețelei
însoțit
ascultat
creată
Plă
##80
lucrurilor
muncit
pricina
##jude
propun
răspundere
expuse
poziții
Ordonanței
ochilor
Bihor
firesc
##raz
domniș
Zilei
imper
Brân
îmbătrân
##iste
proaspe
garanție
cazin
postului
simtă
comerț
##itări
Norve
clinice
satelit
##reas
Gabriela
CNA
##ww
us
Central
cated
##ologul
Paște
meteo
energetice
minimum
##gerilor
Ceva
nenumă
tipurile
##TĂ
solicit
Ziarul
încercăm
Modi
##rati
rapor
globală
it
litri
alternativă
Bâr
electronică
omene
înse
##feric
Spital
egală
Mod
diza
principala
saptam
Anton
răp
poșt
compromis
discuțiile
salariu
##back
Bărbați
înmormânt
afi
##unit
bucata
flă
Administrația
##fectul
##aliste
Danemar
##tezi
pensie
Filmul
autoc
Real
##stirea
Apărării
##DATE
drumului
vitamina
Nik
##xy
ordinul
soarta
Ioana
adresat
împlinit
susținută
Băncii
semnificativă
Motiv
intitulat
Bule
ungh
viziune
sentimentul
Brăila
##gov
##low
subter
81
detaliu
##sesti
asim
concerte
sezonului
credeam
cerințelor
Jim
##fil
hrană
##ory
##med
convoc
curajul
traseu
Continuă
intervenit
situate
colț
##rick
adjunct
##rent
naibii
Cle
Planul
Nist
Moise
reper
tratarea
satisface
##ritorii
instituția
##sprezece
suna
lib
externă
iarăși
caute
##ston
Persoanele
Economic
electoral
Barcel
precon
preferin
##orește
##CC
simult
ros
mijlo
angajaților
##set
##cționa
umf
Evalu
spons
aplicație
secundare
ascen
creație
##rinde
urmatoarele
Băl
deseori
declara
##sezi
mașinile
deș
liniștit
suficientă
încercarea
cosmet
dușman
##iez
traficului
War
Năstase
abon
primarului
elimină
ig
Mihaela
alfa
##oaia
fabrică
confortabil
măt
Win
SEE
##anilor
lectură
aducem
drăguț
##stina
pildă
macar
Drago
adăuga
postat
Băr
băieții
rate
încercând
denumit
Papa
Occident
chipul
Richard
victoria
Vremea
inteligent
rețelele
momentele
elegant
raportului
##veți
##orească
##ziv
Timpul
autorizat
nepre
##riilor
Capitală
##geaba
Federației
##itudini
țesut
##dez
impun
făcu
##giului
But
##âna
competitiv
zbu
Sfintei
revistei
energetic
comercială
##sbian
##oe
Tor
micu
Bea
inspect
Executiv
reflect
UPDATE
dieta
gard
religioasă
Miercuri
transferul
sugerează
italian
câini
restaurante
nem
moduri
##ratul
1010
Supra
nevinov
##orme
costul
folc
capacității
ediții
propagan
identitatea
Pare
verificare
exerciții
integrat
bugetare
one
Ionuț
lansare
Știri
Iran
rutiere
##DI
##cționarea
pozitivă
spitale
##ritul
autentic
sindic
vinovat
##rierea
##uitorul
NO
##ater
Group
fotb
##sături
violen
incepe
Casei
beton
încerci
incredibil
virus
compete
##itatile
neferi
ANA
1993
conving
##less
with
umplut
##cos
Prahova
##umi
venea
Își
studiilor
muzicii
Femeia
fali
feluri
##BI
olimp
##60
prefera
călăt
recunoa
clubul
fișierul
Ajun
Ok
ieșirea
lact
veste
înregistrată
magne
Alina
##spru
primăvara
unel
##orina
evrei
Vite
vestul
probă
Ram
Duminică
autobuz
înțelegerea
procese
păstreze
##ORUL
premier
fruntea
Mur
Șer
directivă
aseară
bogă
semnăt
lideri
aluminiu
Joi
blogul
160
Salv
Detalii
populari
amintiri
aprobate
rock
desi
piet
Investi
Niciodată
##arket
culturi
similară
actualul
curse
situațiile
900
Sto
finale
porumb
agenți
reconstru
##ford
##ești
femeii
##ureat
##stelul
părților
epui
dinainte
legături
grăma
doze
finanță
##yl
Femeile
exploatare
##licop
milf
industrie
festivalului
Imi
jurnal
hi
elegan
Experi
Centen
privirea
Târgoviște
ust
regulat
antrenament
tâmp
Seba
jucătorii
băuturi
download
adi
fereastră
toale
locuit
Feci
învățare
împușcat
##tism
începerea
Fre
##aturii
creadă
ran
personalități
sentimente
limitat
trecem
##erului
##witter
Bineînțeles
fericiți
controla
respecta
majoră
Nume
##win
fugă
spațiului
mobilier
incapa
notă
rezolvarea
daune
##stament
încal
îndelung
cali
reput
israel
Dle
revoluțion
platformă
satisfa
cină
reziste
presiunea
opoziție
erai
Prieten
răspundă
sumele
Vrancea
digitale
Drumul
DJ
##lah
Carte
medit
întregului
neobișn
len
importanți
oportunități
cai
divin
Clubul
SRI
curată
circulația
documentul
##lis
##ciul
brațe
##hen
verificat
Veți
germane
veșnic
fura
##ping
teritoriu
epoca
schimbările
timpuri
Budapesta
##esc
Orașul
armatei
pedeapsa
aglome
Fisc
provine
preten
Judecători
Ortodoxe
frați
îngră
Oameni
lacrimi
Dub
Studii
închisă
compati
##dafi
Dod
contradic
Profes
##torului
comisiei
pele
Biserică
Basarabia
procedurilor
ferovi
ciuper
refuză
ajungând
##iunea
dise
mașinii
##ng
Pala
Moș
##LA
SETimes
##enera
invi
##reaptă
##bilul
fră
cumul
mișcă
urât
oglin
sesiune
vârste
flor
lingv
##soară
##riță
Pap
spunând
aflau
cadre
Miș
##ilate
##zint
bancare
Valentin
producătorii
Pensiunea
maxime
traducere
##nicii
mâncarea
sos
creierul
rătă
##orica
suspe
bum
##cente
##hiat
partidele
răst
susținere
dezamăg
riscului
Charles
Călărași
veniturilor
machia
Dâmbovița
formate
Esti
Olt
Ortodoxă
Dăncilă
aparent
viziunea
ere
Datele
exercitarea
##prim
##bei
##șuri
misteri
neconstitu
portre
insula
imobile
topul
piz
întreprinderilor
Administrat
pământului
experie
întârzie
Ec
protejate
Rog
gheață
##BA
legală
##ranți
Qu
##gentul
Bune
afric
excelentă
Trimite
execuție
salvare
profesorii
cunoaștere
energetică
hotărârea
Albania
alimentar
filmele
înregistrează
literare
contraven
anunț
Liter
Gând
dispoziții
anuală
cumpăr
soldat
pian
celorlalte
pretul
prizon
Pac
##iem
##uil
folosești
efortul
câștige
ușoare
caracteristicile
Operați
Dobrogea
Aplicații
Gimna
taxele
Hy
Unit
IMM
Primele
emisiunea
visul
oarecum
pierderi
tânărul
calde
acordată
##liu
Programului
senzația
frumusețe
îndea
sprijină
Doamna
##siu
verificarea
##acitatea
Dos
finanțat
aplicată
aproviz
renov
cuptor
Big
Indepen
##sec
traver
##ning
Bank
##antele
Călin
Dracu
##tean
##AP
INT
existenței
##tiva
acorde
Vân
mobilă
diviz
cercetarea
plasa
nervos
proprietarul
Brazilia
jumătatea
sărit
##onda
trimit
funcțiile
concluzie
camerele
leu
define
înghi
##țiuni
##ologi
băiatul
efectuată
incat
seme
întregime
140
Ofer
##OD
monitorizarea
Ieri
cunoască
pasageri
spuneam
recuperare
##bur
##ienței
##atiilor
Țin
achiziție
##dej
capătul
procuror
oxigen
opțiunea
vremii
Învăță
vro
##oada
Tări
Madrid
catalog
încheia
Ionescu
Mem
Irina
indice
loi
##AREA
unităților
OR
locurilor
##zăr
##ilului
investițiilor
actuala
Șo
preotul
inspector
materialul
legatura
terapie
Revista
##arelor
##uters
ura
gospodă
dăun
Ind
Viitorul
##zirea
fabrica
Avoc
EU
Maș
trez
rai
videoclip
anunța
fiecăruia
decedat
plăți
Șeful
VII
esențială
corespunde
##cheta
riscurile
##aliu
filozof
##oanelor
deplină
ăia
##ulele
Sărb
##sihiat
##spă
răz
riscuri
agricultură
frunte
stăm
formula
EC
promovează
Arhi
Dră
##AMENT
Spitalului
întocmit
tr
##itoarea
##17
FM
strategii
orient
potențialul
împiedică
paragraf
Tăriceanu
oprește
##toarea
##atiei
##hol
##lion
serioase
minutul
gestionare
cerințe
bogate
întâlnim
ucraineană
executat
May
scăp
cauzate
ingin
##oniei
stru
##ES
##IP
kilograme
##ficii
##taj
##inant
sever
Oce
serii
niveluri
Fla
##dari
dificultăți
tulburări
minimă
Bătrân
##icult
Edu
##xul
ceram
##todoc
##indeni
##pet
Mâ
##kel
AFP
costum
##ănui
Codului
##ozitatea
##ced
acțiunii
##east
transf
slujbă
orasului
evan
cursă
omoare
hectare
Restaura
contractelor
inhi
##cob
coali
Siria
cercetării
Germaniei
Dur
Ri
profita
găsite
accesibile
Ani
deșeurilor
indemniz
##gătoare
neva
climatice
bunurile
masiv
aplice
preia
Efe
debut
publicarea
Soare
supărat
Jandar
##IU
##ționată
perspective
deocamdată
profundă
Mea
USR
specializate
grămadă
dovedi
##ȚĂ
gândire
Mesaje
compara
identifica
raionul
ciocolată
sof
pasul
##niu
az
Tân
Dezvoltarea
sănătoase
domin
##utindeni
substanți
scoată
afirma
##lată
##cs
observă
Împreună
grupe
##15
ruși
Luni
tehnica
apără
Vino
ante
sancțiuni
##orman
trenul
Antonescu
ochela
romani
##menii
genunchi
##ary
privit
consultanță
actului
organizațiile
încorp
prietene
texte
Întotdeauna
stup
regia
îmbol
eșa
tor
frigider
culorile
cumpărături
fericirea
PENT
tratamente
cuprinsă
Loui
Calif
studiului
Mae
##vență
##ficile
comunitare
Antic
##orarea
Centru
ală
##over
##țitul
absența
Tat
credinței
credincioși
prilejul
gân
##ingul
indep
##umim
RON
dinți
##mag
Aeroport
adresă
modifica
investițiile
romanul
obstacole
dân
Căut
crizei
potrivește
infect
semințe
##sto
##cil
specia
##aa
informația
stării
Mondiale
Open
extinde
instant
violență
întârziere
primirea
piețele
tarife
albane
Spați
transportului
urmată
Singurul
##omac
examenul
actelor
##SB
grani
riscurilor
păsări
##metrul
Consil
opinie
specialiștii
speriat
##cont
managementul
cucerit
Corne
Misi
Senatului
##cht
literar
merita
realizare
Rezerv
##gazin
aceeasi
formele
inregist
termo
##40
harta
debit
cardi
rezidenți
restrân
##icăieri
rochie
PENTRU
dimensiune
judecător
tensiune
subțire
opus
##coman
##rorilor
păstrarea
Sebastian
##ds
##șug
Coreea
publica
domnilor
piardă
echipament
modificată
protejarea
MED
##atea
intelectual
sanatate
mărfuri
Vice
Manu
trofe
sunet
strategia
prelucrare
echipele
încura
aduci
temperaturi
răspund
##țene
clientului
extraordinară
Generală
Reuters
Românii
Conferința
aruncă
##tail
dracului
Master
exemplare
limitată
morală
tune
Ham
ratat
firmele
Alin
cândva
evoluat
Apostol
adevărata
neră
Zilele
începem
Horia
Lud
Contract
Monica
infrastructură
existând
celulele
plaja
amuzant
##xi
##olf
turc
bilate
##TC
Organizația
minunate
Pagina
Jocul
##șin
Viorel
retur
persi
Directorul
capitală
Limba
pierdu
concediu
preoți
impotriva
cunoaștem
regiunile
muzical
ADN
consim
cazului
cheia
reviste
##colul
cânta
depozitare
antrenorul
##olu
oricât
##mva
##vire
mulțumim
dificile
proaspete
Iulie
înlocuiește
rezolvă
spălat
FR
asocie
călătorii
Săptămâna
expres
##itează
tradițională
##ai
comunități
rupe
concomite
Octa
obtin
Barcelona
pictură
Sand
ziarul
sarcinii
alese
Doamnă
redact
moare
Teatrului
Claudiu
dezvoltate
mării
categoriile
ego
##ily
doare
barb
degetul
##19
Medicină
avere
Îmb
exerciți
sfarsit
îmbra
milă
învățăm
bolilor
audi
Mitropol
Internaționale
cifre
Muntenegru
cântat
##gs
bătaie
##dierea
ritmul
Lisa
##atoriu
râului
chef
legislativ
Igor
Mediafax
ochiul
Lazăr
Aurel
multumesc
##bilor
sentimentele
pru
hem
episod
bronz
definitivă
procesele
Hid
pantofi
Biroului
SF
conducerii
nete
originale
tratați
calculatorul
operator
campanii
##oth
poarte
##alti
Singura
trai
##ruci
patri
mature
sep
gi
##cron
##ent
nașterea
incinta
achiziții
##dină
forțelor
pasiunea
conceptul
##22
Sofia
dup
CP
scan
##vic
pum
întele
recompen
Gav
atingerea
Diana
LEG
piesele
odihnă
##stește
##zic
vacante
experienta
tarif
MET
condiție
farme
pârâ
aplicării
Silv
Californ
##alizeze
căi
##ght
##tilor
soț
taxă
semifin
achiziți
##chilib
tradiția
așteptam
impe
acordului
teoria
MON
infrastructurii
metodele
Dea
miezul
expert
Părinții
cenz
retragerea
CL
preferă
dovedește
marin
##zime
nevoit
orașele
porc
##ku
liberal
##tilă
1940
numea
##terul
inchi
minuni
Jen
Dimen
##rațiilor
literară
etaj
muzeu
dil
Dvs
organizațiilor
amintești
##bes
Nud
investiție
lectura
Ase
pregătesc
##nat
abate
ființe
creier
Descriere
vându
instanței
Conte
cartier
renunțe
ridice
clasică
ceremon
play
penis
##sarea
##vir
acoperite
Victoriei
păcă
birouri
Boc
multa
Mini
##tur
clase
eficiența
##raș
locuitorilor
ava
specul
Mang
Mediu
identificate
defect
bucuri
som
igien
iubești
Premierul
colecția
Joe
competentă
groa
extins
Ager
salariile
ultim
Kat
Comunității
flut
Fiindcă
clop
grupa
substanță
reprezentantul
##stena
numite
Lan
periodic
conștiința
impri
diferitelor
nevoilor
##raților
proteste
cotidi
modernizarea
dent
piețe
suspici
Jan
Tipul
League
bale
Cant
Bucovina
##nica
planului
eș
Diviz
camerei
##ship
##durea
nud
recurs
promite
##IG
Tech
Oa
clor
poker
așteptare
sfert
oras
duhovnic
ataca
generalul
##isti
completează
##șite
dizol
adolescenți
promovat
imens
județele
##vară
brânză
pantaloni
Southeast
marilor
modelele
alaturi
colorate
înclin
stomac
##mentar
Semn
motocicle
concentrat
reform
Compe
preferate
nenumărate
preajma
Covas
respectul
##mare
cruce
formularul
##cesul
râs
calend
beneficiat
încercați
părului
recic
sfera
absolvit
nimănui
infl
îmbolnă
evoluție
înfățiș
deșeuri
activează
viitorului
cîteva
școlile
recunoașterea
##tle
aventură
clădirii
emisiunii
urmeze
md
normative
##iaza
##ls
intervenția
##uzie
bac
dezvăluie
sanitare
Municipal
vorbea
Thom
##bus
##EO
##UC
Hit
depășească
##bune
supraviețuit
Facultății
##tabil
chei
##dal
importanta
lezi
avionul
pomen
obligații
Sportiv
incluzând
Știți
##fiind
descrisă
calificare
accesului
consuma
ofițer
plătite
semnarea
##fra
băgat
utilizând
simul
consiliului
solicitate
rezidu
intereselor
ocro
Societății
##oto
##olei
oportunitate
Erau
locație
mâng
Agerpres
completat
##lian
independența
matematică
scum
functie
teama
##inelor
stâl
aerian
revistă
bazele
dormi
trist
Arde
Sun
moral
Poi
##ințelor
DIN
Studen
West
##chează
răniți
autonome
tendința
unora
##știle
Sloven
subliniază
restruct
Cupei
cereale
artistică
îndeplinească
Joc
##cțional
grâ
##000
Felic
urmărire
cazurilor
furnizează
realizeze
coro
zdro
aprobată
independente
trăiești
Ry
Psih
elaborat
##ocal
siguri
##ress
locuiește
All
##25
Ama
regiunii
extrate
##°C
Tal
##opul
instalarea
tineret
separate
vitamine
Afiș
respirat
diversi
alar
obișnuită
accidente
clientul
Marți
politicieni
recomandată
obligațiilor
recupe
cererile
##osului
pușcă
stabilească
finalizat
dezastru
recomandări
suplimentară
Twitter
piatra
protocol
contrar
##dră
campio
cunoașterea
##culare
##13
cauți
##gal
facilități
Jiu
##izați
Prezenta
înconjură
##șan
săt
concluzi
Raport
accepte
Vrem
##rana
mandatului
Sovie
capului
intermedi
##apta
Vil
Rol
rată
martor
temperatură
încur
rural
##otene
##stanbul
afacerilor
Et
dorință
##tez
digital
##țită
șansele
descriere
Danemarca
întrebările
gala
Cuza
##cirea
##14
vicepreședinte
desfas
argumente
zicem
olande
fis
stin
##bre
cablu
slu
înființată
gres
##nița
Sw
bot
EN
Toader
vese
Up
reie
buzunar
scumpe
Generale
întâmplare
Fal
judiciară
##siunilor
încărcat
cadă
exprima
închip
Întru
vizion
banc
Carp
râul
##vardul
Sca
totale
Portugalia
pricep
luarea
existență
avan
##genta
trupa
permi
victima
adecvată
mî
mecanism
inev
creierului
comunica
fibre
revel
rahat
îmbrăcă
##18
douăzeci
planeta
renunță
împiedic
Digi
viru
necu
poza
guvernă
cunoștințele
Muzeului
scene
vechime
uscate
Bei
gig
participanților
datorita
rezolvat
productiv
she
Rut
provocări
coinci
Simon
aderare
impresionat
1944
religios
filiale
restit
gândește
FMI
turul
sperăm
speră
Albă
îmbrăcat
tratate
răsă
bunul
tulb
Câte
lucrezi
degeaba
pașap
opresc
##urează
##ctarea
granița
testare
Situația
Secția
nicăieri
Gara
tehnologiei
return
Pin
expresie
##antă
posibilități
Aeroportul
luând
urmele
călugă
Urb
Lug
forest
încercări
înlocuit
fant
Iliescu
##zesc
Irlanda
##ux
Pr
străină
##ctiunea
Regina
pah
work
ortodoc
amendă
nebunie
##mel
turistic
petrec
Condi
băncile
##stării
clasele
##țime
##ones
##ientele
imobiliare
Covasna
Munții
definite
distri
împline
##ves
Mature
rugăciunea
clipa
elicop
Directivei
Istanbul
educațional
menite
originea
individ
Ier
##rontal
Turciei
Management
durabilă
secția
rezoluție
supă
scăzută
##vili
Merge
##ining
jig
medicină
Ilf
instrumentele
Nivel
ilegale
zo
##tatii
Recun
Statului
voința
Ata
Lic
Domnișoare
##riac
seamănă
subordon
respectat
Fab
opta
Traducerea
greșeli
pariuri
reorgan
meteor
consecințe
cosmetice
##icite
versuri
EL
izv
susțină
comunitar
##ELE
Sexual
Cad
##deau
Green
globale
mire
integrare
##unare
procurorul
imagina
##sponsa
emisiune
gazelor
urin
Prot
impozitul
poză
##ităm
scriitori
PO
goale
##dăm
progn
ateliere
organelor
câmpul
nerăb
debutat
##16
Prețul
urmăresc
King
benzină
##uala
Deschide
##dini
vale
Comanda
episoa
sue
ideală
HIV
senzație
slabe
Teod
Superi
turneul
citești
joaca
opere
magazinele
utilaje
oprească
##mită
recentă
citiți
artei
##sburg
lansată
Spa
porni
Ime
fetiță
prezidențiale
descu
demers
ras
baze
eșu
##oriale
minoritate
Obiectivul
orche
CC
##gheni
slăbici
tact
operă
##otimp
perchezi
tramva
pacea
intervenții
manieră
nera
Mamaia
calm
##UB
recensământului
##cali
Mol
instruire
##ctoare
mișcări
Angaj
##bești
cartofi
riscă
întâmpl
zilnică
Live
susținute
vamale
păcatele
##sule
bumbac
California
soldați
##OG
corupției
intampla
inscrip
Afaceri
încoace
Parcă
Aveam
##beta
județe
agra
Alexandra
coloana
arunca
Pil
univ
bugetar
egale
avand
operațiunile
proprietar
reînt
tipări
Blog
apropiate
evidenți
Noapte
Ține
##ienții
Deja
depăr
competențe
limbaj
##fort
contribuabil
liberi
Cost
von
##fo
Dodon
declarațiile
bunica
morale
coordonarea
cota
autorului
apla
##cționate
Tata
distracție
vizate
functi
zilnice
##ceut
scaunul
petrecerea
deca
competiției
ang
directive
bazin
Charlie
soluționarea
Drum
întoarcem
viza
##vian
jud
Armata
Mediului
Sina
ocupe
Sum
##univers
##rogare
##spir
încălcarea
##cei
ședințe
inovatoare
distanța
##ias
aleasă
apărării
evanghel
##isoara
localitățile
##sional
Consiliu
Școlii
lipsei
##burile
Tha
Prom
sanat
activi
##venți
reprezentanților
întîmp
varsta
transmit
Tel
introduse
Curte
Struct
entități
vacan
Aște
recti
Serbiei
Viorica
Ot
##gresul
credea
Secu
Mike
trupele
nopți
##rari
Patru
guvernamentale
##isaj
achiziționarea
propriei
considerabil
Bosnia
reusit
clasei
##cker
Proie
evaluă
ster
generat
Iancu
##cescu
odihn
uleiul
Far
înot
stabilesc
băutură
strămo
agres
disciplin
șant
##geni
găt
domiciliul
expunerea
350
locuință
##pin
dizabilități
Lar
vap
fermă
atacuri
pote
Stil
conducă
mole
munci
aderarea
rech
sunteti
solid
slabă
chestiuni
îm
protejează
deputatul
tică
capete
arat
mondiale
Imediat
aleși
pacientului
dificultate
impactului
discursul
prietenie
politicilor
Rena
autorizate
agenția
stocare
sece
masura
##cone
ședinței
comerțului
Actual
beau
implementare
însemnat
judiciare
cremă
Catol
mastur
recrut
Transilvaniei
sărbăt
oferită
Anexa
patrulea
finele
##oziției
facebook
sortate
Activitatea
gast
performanța
îndeplinește
transfe
sârb
piscină
sufletele
Slova
pierzi
##ienta
instalații
stadiul
##iche
ofen
##shi
Apă
brun
manifestări
îndrăgo
moșten
performa
înscriere
Contra
interim
inspirație
adoptă
Ray
single
intrării
usturo
serioasă
întemei
dotat
repetate
fruct
mandatul
vene
##jen
Magist
vizitatori
Atena
înfru
organizația
terenului
conținutului
##luc
viețile
împăratul
bolnavi
USD
##FOR
capc
criminal
înmul
distrugerea
Play
modalități
descoperite
precip
prietenă
dezbateri
alocate
##shop
subven
scrisoarea
rafin
costa
avantaje
ceasul
apelor
Feti
##udat
încolo
teza
Politica
Parchetul
Bus
abordarea
Anti
Ilfov
125
modelului
recept
Ajut
îmbrățiș
filmat
cca
Său
litig
Locu
##noi
Vodă
##scri
acredit
Dincolo
Arhiepiscop
##drea
Thomas
##iet
Întâl
vândute
Bill
contractele
Procesul
dragul
apartamentul
Rose
iubi
didactic
##schi
interdic
Dimitrie
plâns
Adunarea
Vul
AV
Ucrainei
legilor
nava
presupun
##ermarket
Roy
PP
miliard
rati
povestește
dezvăluit
ridicarea
comenzi
discutăm
parcul
presus
conferința
##range
##ations
Mării
politicile
pachetul
Pas
##ărî
transmiterea
fut
reprezentată
operație
grozav
duhovnice
##țelul
imaginii
##ilele
denumită
##jez
Concursul
plăcerea
bucurește
crema
Națiunilor
dulap
liste
ala
prealabil
homosexual
riv
Cetă
mergeți
##ofii
termenului
diplom
spont
Hard
prele
primești
SĂ
încheiate
##ode
matern
bari
##oveni
##tila
##lywood
##roe
maghiară
##zen
consumă
##tip
chil
Fl
Oct
##șirea
preda
oase
vote
barbat
motorul
time
##mia
Fondului
scara
voiam
plen
aștepți
183
satele
##ugh
rămă
Martie
plătește
Harry
##GB
doamnei
##ICE
prezint
Deva
ive
strategic
constantă
##────────────────
##mpie
Pale
însoțită
dv
metrou
pne
specializat
proiectat
##lish
rămâi
întrebi
certificate
liniile
##exa
suferință
Galaxy
desfășurată
Kim
Bărbat
ampli
vânătoare
##dox
##ispre
eliminat
Știm
apărute
judetul
recunoaștere
pris
taxelor
Folos
pălă
Gorj
incu
pate
competiția
Jocurile
depunerea
1980
Philip
interpretare
##strului
documentar
renunța
șir
fertil
##alaureat
regională
pachete
Irak
postare
deținute
cancerului
îndreaptă
amintim
Compar
##gerul
detaliate
integrate
##antei
repri
##borează
avansate
Saint
expresia
##lick
Băieți
Mereu
consecințele
ov
conectat
minții
bră
##ugos
fili
aiba
satisfă
cina
Meto
Om
adult
Ordonanța
colectare
Meu
fat
depist
chestie
Utilizarea
Câteva
simultan
dro
##ody
cople
scăzute
hartă
##cios
furniza
numar
responsabilă
simțim
umid
pacientul
învâr
alăturat
##ZA
dorn
Get
Pregă
national
##ool
Nicole
astept
Los
cunoscuți
termenii
procurorilor
dispre
ținută
urca
trimită
șom
##icală
##âne
ANAF
bijuterii
dorea
Mih
nenoroci
Ciprian
Festival
lansa
##ICIAL
Norvegia
pătrați
epide
curente
adolesce
startul
puterile
AICI
retrage
absur
normativ
afectată
ferată
Uită
asistent
grame
ziar
Președinte
##oriile
cumperi
testat
determinată
Tineretului
secretarul
prezență
multime
##parla
sigure
expoziții
minți
debutul
##landei
Andre
##mann
supravegherea
comuniste
##unul
Alături
Bir
mărturie
##fonul
Cristi
Ial
1945
desprin
ascu
factorii
##sex
bomb
##riene
garanta
revoc
programat
îngrozit
cumpărare
decol
sustena
reparații
conturile
balcon
sodiu
proiectare
deschid
verb
genera
Multumesc
digitală
LED
proprietari
##veanu
benzi
OK
diabet
vorbitori
fia
apreciază
îngă
Apar
CCR
insulă
raportate
Elisa
##ționare
domeniului
##isn
botez
concret
Olimpia
ascult
proporție
OUG
##ray
plecați
ambiți
recunoscute
verii
aude
urâ
diferitele
fiului
Creșterea
valabilă
##gătorii
universitare
##tem
##TV
dumne
coborât
judecătorești
implica
clinică
##vârșit
încărcare
poveștile
strop
judecă
protoc
impro
Romanian
volumului
determinarea
întârzi
punea
Design
generate
##bolul
Grand
##țiază
##mun
ținem
suporta
stația
pregătite
contactați
mus
OFICIAL
##ismelor
Iulian
însărcinată
travers
fidel
##stească
##veri
Lumina
##viți
Yo
bloca
deoparte
jocurilor
##reț
tig
Toma
Cic
##între
soției
##ogan
##obby
##chetă
XVI
Grupului
reclam
infract
darul
onor
posibilitate
poezia
dispozitivul
componentă
cercetat
cior
hrana
bilan
particular
American
transfrontal
ambi
salut
servi
aparatului
Reprezentanții
exprimare
planetă
Lucrarea
partida
agresiv
##zator
inventat
Copilul
##dra
dădea
litere
sîn
hotărâri
consoli
Ultimul
##itas
implementat
necunoscut
Veneția
găzdu
Făgă
##diile
Ungariei
sustine
campionat
anotimp
##iner
podea
##meze
universul
afacerile
BNR
Congres
operatorii
pronunț
##RES
emig
IX
naz
##hos
îndrăgostit
Gaz
suveran
apt
##VD
jumatate
##rote
##ball
Râmn
nedrept
Colegiului
personalizate
avertis
mame
taxei
eficiență
conferă
testul
administrativă
Mijlo
întreprinderile
##erry
vase
arhitectură
organizatori
scrisori
navă
constitui
porta
cifra
##gram
##CD
libertății
mărturisit
bbw
ou
suprap
iluminat
sanitar
etajul
împră
deranjează
limpede
nul
protecției
garantează
##ses
patul
Educație
Um
ocol
##țenii
opinii
rang
##cial
deopotrivă
Medi
izvor
Șerban
promit
Ly
numerele
oficialii
##bama
##án
fundal
Termenul
Catalog
##itură
îndeplinesc
descoperă
infracțiunii
cauzele
ogl
imunitar
bătrâni
Cinci
italiană
comerțul
##viat
Tari
răul
mincin
salvarea
##arch
deciziilor
plecarea
##orescu
utilă
Atlant
Exista
Dorin
##gente
mărimea
puternici
referendum
accesa
canal
servit
precizie
pretutindeni
##DO
cast
asociații
suportul
Mold
Intro
Oana
șosea
întoarcere
aleagă
Bărbatul
Membrii
##zzle
##work
Testament
Jun
Armatei
##ferenți
Pod
atră
vota
Augu
educaționale
siguranței
brațele
tv
societățile
partenerilor
sedin
canalizare
recur
interpretat
fotografiile
deter
clipe
sponsori
plâng
ritual
buc
Herțe
ecologice
conditiile
TA
vântul
compen
interpretarea
##mburg
litor
Omului
##ferii
August
Pari
contribuție
îndeplinite
automată
MI
pâna
Bara
salveze
Investig
putând
termică
##diere
discipline
regenera
##ius
Comunitatea
chat
##ărțile
hotelului
Adulți
##ject
Liturghie
##rirea
170
doctorul
tom
venirea
##siilor
premierului
avioane
Henry
Maxim
##ficați
indivizi
finanțate
adolescent
##rich
mănânce
grăsimi
ambal
mint
##gină
războaie
Program
consiliere
Tratamentul
##miei
personajele
Rapid
Sfinții
formația
obișnuite
Herțegov
șta
responsabili
priveste
suspendat
păp
##rune
Reve
Oscar
disco
programare
Organizației
idi
##burg
##ândește
entuziasm
automobile
Urmă
extensia
laptele
fugi
rămase
împutern
Vit
alegeți
judecători
Avi
##tivă
aeroportul
fanii
##zy
eliberare
generează
##joc
îndeplinit
abilitățile
adevărului
Chri
Acțiunea
ampre
scenariu
uimitoare
înspre
uriaș
##ments
subtit
concentra
Dragoș
constăn
##ventă
fante
concure
nostri
Acu
alun
frecvență
literaturii
##ferul
concursuri
##ctului
pocă
țip
amenințare
analizat
clasamentul
liniștea
colegilor
consumatori
##ȚA
##ath
încetat
Căpit
citească
acoperiș
mol
lungimea
partidelor
##stiți
penitenci
invităm
pară
împărțit
seni
responsabile
##lementează
trebuiau
Femeie
muzicală
turneului
prețului
provenite
confortul
Resur
amestecă
șap
transferat
arăți
complexă
realizării
##reacă
provincia
vorbitoare
bibliotecă
înregistra
Începe
Costa
îndem
Fire
Valeriu
WTA
##untul
compa
suprem
structurile
logod
dimineata
adusă
întorci
Control
Ast
afecțiune
puzzle
lămuri
sportivi
Parchetului
##oten
sit
Iorga
##ționate
personajul
hotelul
boa
cavale
Vreme
pedeapsă
##enței
funcționeze
băncii
esență
Modul
cip
independentă
##ilind
enumerate
Invit
USL
##uru
avertizat
marelui
administrează
documentare
##ctori
nefiind
sticla
plăn
nevoiți
Soția
hib
##hul
##EX
Mary
dens
Str
Salut
ID
##tte
1970
Tan
utilizatorului
bos
puneți
începi
Crime
surprize
Desi
##uu
lecții
recipro
agenției
##iden
Front
uneia
##șița
agricol
apariție
Ty
##ting
Angela
teorie
stări
regăsesc
aux
Rămân
Marcel
accentu
Lauren
publicării
mijloacelor
Comerț
Sandu
chinez
magh
##comunic
mâne
slo
Mire
mărit
Cocoș
repetat
viceprim
supune
inimile
nașterii
placa
##menteze
convinge
CR
măsline
Rege
PA
Phen
##kt
șefului
mărime
săraci
evol
Liderul
înving
##90
Declarația
##did
păduri
Amen
șoferul
long
simptomele
##ridge
emoțional
comandat
Perioada
##zându
descrise
înveți
germani
buze
astronom
Sindic
furnizor
##fla
##uch
Cy
aparten
acorduri
XII
mândru
celulelor
##dist
blocuri
manageri
colaborarea
gras
decur
muta
##năstire
##via
percepe
temporară
meciurile
##ville
destinul
inteligente
cercetători
ortodoxă
nenorocit
depistat
Acești
Slovenia
transformarea
fiii
Jurnal
MONIT
mist
emp
simpla
Motivul
Cetatea
plantă
Grec
fina
permanență
##denta
ansamblul
prevenire
tradit
Center
lucrătoare
mănânci
ampl
garant
##oris
dimpotrivă
back
exemplul
predare
Dil
casca
nevă
alocat
mingea
vag
stabilitate
infrastructura
platfor
datorii
##tarilor
Ton
acționat
natur
furnizori
Promov
cronică
Mobil
Elevii
Lite
forțat
vecinătatea
căutăm
vizual
iep
risip
hidrat
Administrației
modificate
##zește
plantelor
șar
acelei
##strat
##fida
lenje
obținută
##izeci
Sep
regizor
săvârșirea
capabili
vândă
carca
nivele
judecata
vechiul
originală
gîn
scoala
învăț
suprafata
hăr
avocatul
##unește
selectați
##ART
instin
atenți
Asistență
numer
Firea
pariu
##ander
nerespect
Coa
Rezultatul
patrimoniului
disc
Studiul
lecție
colectate
##ald
##cite
resim
universal
deschidă
Acordului
strânsă
##merit
##atch
CV
Adună
##osebi
trezi
vârst
previzi
psihiat
Județeană
reabilitare
Exact
animate
Street
cetatea
##atra
nucleare
Afgan
Eva
Ger
armele
expir
Turda
flui
raportare
cutremur
UDM
fabri
Semin
elementelor
deva
stângă
părăsească
mediat
Vib
gazdă
Publică
competența
spitalul
##LOR
##ERE
delegat
##stici
Poiana
Catedrala
Met
##iași
locui
autovehicul
datorie
##stabil
concepute
Monu
efectelor
##ASA
browser
UDMR
AB
activat
fotografia
adica
##irt
recomandate
##guver
##ptăm
împiedica
negocieri
înteme
ISU
ISO
dispar
Pui
##zive
ducem
primelor
dependente
problemei
##onare
Anna
semnată
Power
##geau
nein
afis
##ântă
manifestare
##orter
EM
calorii
Legen
##ntion
lanț
trupei
zvon
meseria
Cola
împlinirea
Iasi
##șoara
Michel
##DR
nun
Sergiu
Capitolul
##disp
reduc
uscată
limitate
Câști
uciga
descrierea
recuperarea
absolută
##exe
consecutiv
##ropolit
stație
procede
umbră
##rității
##icele
acuză
căderea
mirea
deces
calit
##biri
##țeze
##ichi
cuvântului
particulari
##siile
victimă
mere
MONITORUL
##niță
spit
învățământului
Biblie
dormit
suspendarea
Dunăre
##rib
încar
cuvine
ventil
Cercetare
Pământului
mirosul
întrebați
ataș
reședință
bolile
Poker
erou
coadă
motoare
sectoare
exces
încadrează
Hr
nivelurile
Bac
Office
înal
franci
Strada
aceluiași
duminica
##stica
cauciuc
uriașe
păm
lire
Craciun
bala
favorite
producătorul
spart
##team
societăților
atrag
bob
##snic
##izări
Kove
glumă
##ALE
preo
##23
##păț
rețetă
Lucrurile
XVIII
profun
intelectuală
Tale
obosit
cooperării
valut
doctorat
lig
haide
Lucrările
Blaga
Bala
##dern
gande
##teau
Credin
dezavanta
ambii
fundamental
îndepărtat
Human
luminii
pămân
##siste
știința
echilibrul
primim
Produsele
vege
indian
ecranul
avansat
cântec
respectiva
Frumos
strategice
Palatului
Pozi
lucrării
uh
Produse
anve
dotate
Brasov
trimitere
##raturii
vino
biciclete
obiectele
complicat
intreaga
Încearcă
Poti
fixe
stimularea
acopere
asculte
expedi
Smart
scoase
misiuni
##minare
ajuți
numirea
formal
pofida
parlamentar
##omon
asemănător
asumat
implicare
Caracte
oi
Delta
Expoziția
exploatarea
înșine
##ficul
asigurată
##ries
menstru
rebel
lipsesc
apropiată
toxic
all
teritoriului
proceselor
încălță
Ambele
explicații
canale
##ogene
Oprea
##ING
initi
##nturi
trimestru
copaci
Asiatice
##limă
limbile
##siei
vechea
neaștept
destinată
oglindă
zicea
revină
admitere
ținute
grupurile
călătoria
puști
vătăm
acționa
##ționalitate
epocă
termice
Imo
religia
lăsând
##ctu
expoziția
căutați
diferențe
textului
Contro
părăsi
marcate
dragostei
Focșani
hal
cori
accidentului
colective
##dium
pornește
atacul
privitoare
bicicleta
făceam
franceze
antibi
Mamă
##cl
tabelul
nesf
##belor
##împ
dictat
datorate
profilul
ofertele
plasat
descărca
hd
ocazii
##mond
##onament
rezolve
Arată
făină
Duhului
##enilor
particule
logică
omenirii
##sculare
operațiunilor
predat
Lugoj
critici
înlocuirea
turiștii
baschet
dna
niciunul
primiți
standardelor
apropiați
Sky
Mos
medalii
amatori
ploi
azil
necre
liniștită
##urnal
##isprezece
stim
alimentație
##țești
țigări
##cărilor
Teritori
înră
AST
eficace
sprijinit
industrial
inginer
familiilor
GB
Suc
##OV
plânge
Autorității
##rov
maste
norocul
REG
conturi
aprobare
Prut
intreb
Becali
arb
Articole
##lad
semnate
irit
disponibilitatea
artifici
administrator
purtătorul
traumat
suporte
critice
Hip
competențelor
atelier
ocazi
Cornel
distractiv
abun
salariilor
egalitate
mențină
105
107
achiziționat
rete
##ĂT
munți
circula
adopte
înșiși
apariției
medicina
##rome
cluburi
##sole
valabile
dru
costume
##stesc
##iter
iarbă
tratează
extreme
Senat
cămin
1948
moldoveni
estimează
##ser
deze
preluarea
indu
Județul
bucurăm
sovietic
Orientul
Situații
strigă
Modelul
nascut
##tati
cerc
Udrea
criticat
meniul
înscrise
informa
Enescu
secțiune
Mete
medicamentele
ingrij
Clă
nerambur
Pâr
Casație
##sabile
Albert
Bit
oste
Constantinescu
Exemp
exterioare
veterinar
Spect
aple
tutun
Fen
demo
scrii
pedagog
dimensiunile
##gian
marti
victimelor
explicație
uriașă
Mone
predom
##anim
Tumblr
refuza
surprinde
Base
simboluri
cardul
vremurile
Constituțională
metalice
variază
șoferi
victimele
Sel
asteptam
contemporane
##ioase
locuința
republicată
Ford
circulă
înălțimea
coborâ
her
invat
exprimate
construiască
meciului
Juni
catastro
Arta
uciși
asistența
abandonat
##sing
Dic
##ficările
##onă
##inate
Cosmin
ciclul
răc
Mecan
Kovesi
##umit
conștiință
operatorul
##midă
Constituției
Realitatea
jucă
atentă
##țimea
##scump
Union
achizit
Militar
negocierile
faptelor
autoturisme
suflete
organizatorii
patrimoniul
limbajul
depună
Campania
##ief
178
Pomp
controlat
spera
milit
semnale
socote
agenda
##UE
trem
democratice
##rurilor
săli
Hd
##api
elveți
răsturn
##șie
Hitler
născuți
consilieri
Domeni
Service
coleste
figura
aștepte
nuanțe
avantajele
reforma
carierei
comisia
jură
Clip
jef
ajutoare
dește
întins
răspunsurile
menținut
orală
evite
##igra
economii
înflori
evaluării
##giei
destule
tatal
##gului
Gratuite
cheltui
Crimin
##ATA
jucării
consumatorii
statutului
Teleorman
pereții
scoți
Octavian
dietă
conforme
floare
trandafi
Ruse
Recom
eligi
îngrijirea
băi
lansate
##cha
Dezvoltării
obos
Întrucât
prostitu
feci
progresul
lene
japonez
posesia
Sn
universități
##anelor
permanente
producă
orientă
farmaceut
centrului
Forum
patriarh
##any
Gura
câtă
Sla
##ândă
tabără
Merce
păcii
intitulată
##PT
stiri
##lău
masini
cauta
împrejuri
răsu
Infra
urbane
greacă
harul
otră
comprimate
Anca
concentre
bătr
rezista
PREZ
biru
Câți
excursie
##gil
Opera
medicilor
Războiul
spațiile
centrele
decre
sustin
Atenție
actorii
##ll
Registrul
romana
Argent
albu
##tici
123
virtual
pornind
depunere
sum
clinic
Școlar
##ken
termic
sediu
competiții
smul
sperie
##ptarea
Judecătoria
modernizare
infecții
descar
Convenția
severă
primare
##Ne
Aproximativ
##itarii
##oziții
teritorială
TR
Punctul
Constanta
cadrelor
intensă
investigații
##stată
##odie
treime
Dig
evitarea
##Rep
fitness
Java
depusă
Ach
##lăn
contemporană
etern
formulă
##cătură
indirect
primită
vinuri
iron
farmaci
Mân
alimentele
abilități
##wei
adaptare
iubita
##jur
anxie
zâmbet
##ions
pereți
##bora
##onala
venind
##PO
Stand
teoretic
produsă
Știam
comunismului
##ropur
plut
Ident
inven
Răspunsul
Prefect
##tima
Greciei
suspendare
auxili
listele
monstru
Păst
##dulescu
liniști
întreținerea
faceti
emisiilor
vizat
##ierei
Gran
coope
propriilor
fenomenul
creștinii
moda
ciclu
Hil
asociată
ir
##diene
##atarii
conștienți
Ki
Sexul
Împăr
Ralu
##ange
##ușa
concurență
Nouă
tranzacții
nelini
##oscop
##teb
CM
Os
##ouă
încerce
Luxe
uși
sl
anunțuri
materialului
politicienii
individuală
glume
##STE
Centrale
zei
dispozitie
Transporturilor
sfinte
erori
METEO
##zna
Camb
##py
mită
stins
oficiali
facilita
##getul
Urmează
lunare
Dro
tehnologice
egip
Inclu
rating
Imperiul
##școl
##rența
115
##deral
##tex
sprijinirea
##nească
nori
scapă
dezechilib
Concurs
ost
Rome
calități
turci
monah
maim
aferent
Indian
inițiale
Iuda
mesajele
Faceți
Anticorupție
vital
sumei
##ular
Bud
##lalt
from
##ocii
evaluat
Parteneri
fabricarea
Zam
##COT
închiderea
autostră
îndrăzne
reședința
procurori
##sius
esența
căile
nefericire
##țuit
trotu
coada
locația
Que
numelui
Doilea
depășesc
##virea
rurale
##oxida
venitul
emoție
grâu
emoțion
##ovei
descoperirea
hidra
musculare
Der
demarat
Olimpice
laudă
Gy
voluntar
Finlanda
bin
obligă
avort
Cale
inceputul
##ortant
celebrul
utilizeze
nt
primire
pătr
probele
apăra
corporală
trepte
controver
bătrâne
##ghita
##uitorului
vehiculului
##ughe
inconșt
personalitatea
fapta
##rive
placul
familiari
spiritului
expunere
##miță
1968
spaniolă
##CH
ramas
marchează
genetic
favorabil
##zăm
ortodocși
îmbrăcăminte
divertis
ajutorului
terminarea
##chetul
Insul
înscri
orez
severe
împăratului
operatorului
Ko
incomp
marfă
armoni
metaf
Dumnezeule
miner
extindere
sclav
dispare
dispun
##seori
structurale
lotul
contului
Fundației
cilind
sacrifici
##uța
Cotro
administratorul
Administrație
regla
compact
contabil
onoarea
constrân
pozele
strădu
agentul
Colum
referin
nev
cifră
Evaluarea
săturat
opune
curățenie
Origin
democrație
Alege
alcătuit
piper
certificatul
studi
porțile
cursului
Agriculturii
modalitatea
furnizat
Reprezenta
##rali
solare
Fig
curăță
##dec
Hotărî
##atari
Ionel
incal
emisiuni
Constituția
întocmi
fragment
ofițeri
amuz
dormitor
hotare
vestea
emoțiile
lumini
##găr
Seria
figu
Dreptul
moderat
eforturilor
sesiuni
##lurilor
totusi
rețete
##ptăți
armate
Adevăr
salariale
Țării
##ptic
##hează
sand
comunicării
reabilitarea
Sociale
caracteristică
Zen
controlate
rezistența
URSS
Ungheni
procurorului
Shemale
Dinu
Certific
câștigătoare
Fili
Via
cântece
Arena
conexiune
volan
177
Mis
Personale
revedere
##blo
ger
identifică
transforme
adăugată
acceptate
Jane
ari
testa
Pus
ziare
cauzat
vîr
Ministru
fani
##rey
Dul
expus
razboi
informatice
ceri
amenzi
locații
sm
pornire
supran
înconjurător
cote
mn
Avram
albumul
informației
##gătorul
neamului
moartă
simti
îmbunătățire
secretul
Nob
săru
##apti
1950
producătorilor
zboruri
Municipiul
atragă
Studio
Categori
##biliare
mărfurilor
solide
pașii
sticle
tradus
##romul
ruta
Italiei
abdo
ramane
lacrim
fereastra
mănăstire
protejată
mori
Maica
veșnică
contemporan
Sant
libera
cadrului
##ratele
viteze
prind
agric
Mări
funcțiune
Stii
calciu
coper
DII
##dați
ciudate
Hand
asigurării
portul
Același
tric
inferioară
turistică
orientare
##varea
sursele
consiliul
Corpul
Roșu
Superior
##sători
DO
##ilare
găsită
martori
Concer
păcatul
Booking
anexă
##oloș
inclusă
fract
ezit
##bai
Descăr
##ționarea
duble
Global
Căr
promoveze
prințe
Hollywood
prospect
Bart
artistul
găzduit
##uzi
##bona
prevederi
TRE
Împără
gestiune
transportat
oma
operează
Iacob
jurnaliști
##27
protejat
Pit
##simea
Day
poș
semnele
lipsită
Stănescu
consimță
dând
atribuții
##nicul
##ireless
perioadele
grăb
oportunitatea
##SM
tâl
##key
##niuc
DIICOT
Explo
Eng
Obama
##sey
Absol
comunistă
structurii
delim
Nar
##imul
sfatul
supusă
însoțite
##guvernament
textile
povestesc
##stăm
minus
109
estimat
impozitului
invata
Presup
demar
porunci
adăpo
cimit
Mijlociu
analizează
dog
deceniu
asociației
USB
crescută
democrației
operații
master
##șim
##vare
##ntial
relației
tarziu
Departamentului
ordinii
pură
Sectorului
Comentariile
profunde
Nova
influențează
##caș
Az
marcă
pse
fratelui
Flu
Vrea
ferest
radical
##orth
Creștin
fânt
stimulează
capitalul
##oxic
Gimnazi
celebra
Marte
##mus
sondaj
##rire
înțelepciune
acționeze
furnizorii
descopere
beneficiari
##rã
poetul
dialogul
uciderea
atractiv
##lierul
greșită
cădea
conducea
lucrăm
speri
diabe
Ari
islam
extraordinare
petreceri
##dură
Lady
expoziției
Augustin
Masaj
##velop
florile
exteri
fabrici
Ediția
##zători
existau
accidentul
calendarul
##PI
controlează
atingă
numerar
Labii
##kan
pelerin
##ICA
mișcării
Muzica
##sate
managerul
funcționat
proaste
mersul
Dej
îne
obiceiuri
suprafețe
dome
stații
colectarea
##zez
##sin
##vește
cererilor
##icon
Rusă
Stefan
Fotografii
Mala
preventiv
fetița
##Replica
fetelor
progrese
armonie
Cotroceni
##vig
##erată
preocupă
sfe
amenajarea
Valent
Lesbiene
cumpar
recunoscută
inutil
numiți
șamp
reprezentative
insuficiență
##ziunea
cauzei
îndeosebi
episodul
PCR
soțului
interimar
pradă
##obol
Amator
vizitei
compoziția
##loud
adăugate
înlocui
afili
##ricții
îndemână
saptamana
##orate
##rență
odata
##NE
depun
Barbu
Complexul
inel
##lăm
reclamă
toleran
Kiev
magnet
##orizate
tac
Kara
Muntele
îndreptat
Afganistan
Liberal
##spora
profesorilor
nelim
Informațiile
##uțe
geomet
vinul
IPJ
##anga
doriti
obisn
adevăratul
angajează
vindecare
Dolj
portocaliu
##ZI
##sty
##îngă
terenurilor
Măs
pete
##otică
tensiunea
comisie
urmărirea
Pis
##misi
invitația
sic
Dure
victorii
draga
servește
ocul
psiholog
proprietățile
autorii
misiunii
Mercedes
gang
reiese
vietii
adopta
Sul
raion
icon
durabile
îngu
directorului
##sis
##hidrat
vehiculelor
##well
##cteaza
privim
adit
credincios
implicată
United
cutii
mental
##stările
biblioteca
obișnuiți
străzii
glas
convenit
părții
remarcă
gine
urechi
comise
##apea
Banat
planetei
accentul
Come
##Ma
Vac
căma
iubitul
izolat
deplasa
arterială
intamplat
Out
Sinod
Vitea
University
vicepreședintele
Norm
Chine
munții
înfri
Bile
news
Herțegovina
Georgia
##itație
##jo
demol
unelte
fabricate
##imii
vred
investitori
FCSB
încalcă
##nik
##inantă
Angeles
Ye
Discu
lămâie
##islat
stabilitatea
selectate
amplasat
urmeaza
prede
##gător
participant
home
recomandăm
candidații
Libertatea
##irile
##deni
sesiunea
##reți
negativă
##ânz
atom
Feli
##icianul
procente
paramet
manifesta
fortific
desfășurării
iubim
agă
Ciob
Antoni
participante
##sci
##atri
##darist
Sezonul
##AND
elibera
conditii
proprietarii
denun
echipamentelor
##omir
grădina
oprim
estimată
RS
##șto
##rof
Înal
spectatori
Inițial
plângere
engleza
talentul
auri
##BU
cincea
Farma
##dae
##oiul
națiuni
producat
faliment
##ceri
##ricilor
Fara
apere
orar
impoza
Pul
discuția
Magazin
##atiile
Călători
Margare
celuilalt
ucrain
1987
##niți
feed
ortodoxe
lasat
anularea
##ordinea
teribil
rezistent
acoperirea
##cid
antrena
sprijine
umbra
eliberează
adâncime
Dip
Mâine
informativ
entitate
îndeamnă
capitole
candidatul
Conclu
admira
inchis
##ESCO
țineți
dosarele
##reak
Constituționale
grupurilor
colorat
ȋn
##mpa
nasul
Rod
vârstei
fede
##aton
prefect
Sâr
Orban
propusă
chimic
##ghea
adaptat
##ORT
fructele
coezi
lesbiene
calendarist
Cipru
Ist
Marie
##căr
tăcere
Litu
##ferea
variate
posturile
continent
pretinde
crimei
oaspeții
##uros
##orare
inver
fondat
Clar
Plahot
emoțională
administrate
manifestat
înțe
Rezi
dramat
segmentul
except
prindă
Polite
##sfin
găsea
##ghiu
amiaza
negoci
Socială
preg
##uk
Mântuitorul
##birea
Duce
ingredientele
Next
scla
reușită
serial
controle
alimentelor
impresionant
PREZENT
sustra
șterge
făcându
108
grec
terasă
##miterea
extinsă
Blue
scriitorul
divină
înze
Înalta
Teatru
that
nădej
##scrise
potasiu
Fut
##îrșit
Codru
Restaurant
căldura
Oltenia
Înalt
principiilor
infracțiunilor
silv
##yi
Campionatului
##PL
garanții
alimentară
##minarea
##zis
Comuna
consumat
turismului
neuit
albastră
curios
Gold
amenințat
cluj
voci
##ocalip
asamb
efectueze
Castelul
##ografiei
Corneliu
##isp
comemor
##right
Seri
indica
executa
rena
##box
deficien
retragere
Rock
inferior
căpăt
##TM
##ARA
dest
1941
negocierilor
programată
Arsen
Astra
Banii
Lee
situatia
umor
centi
incar
zilelor
CEO
delicate
Dat
##ăriei
diferă
ulterioară
Strategia
rugam
##universitar
Stiu
neob
Britanii
beneficiul
cancerul
sincron
etn
întîl
this
aero
falsi
regizorul
##itații
altii
mîn
##bec
rețelelor
Dildo
##INA
##GA
Schen
cutia
exactă
Daniela
##zise
curentă
lunile
diplomatice
Slovacia
protejeze
pulmon
chit
încetarea
propul
simbolul
nesig
fascin
regizat
folosință
spitalului
exercită
istoricul
Caracterist
Sfântu
##urea
scapi
cercetările
necesitate
Unitatea
bleste
##qua
acordare
Tomis
doamne
Constituție
fizi
concurenți
tărâ
dinaintea
aceleiași
##intele
##ctiuni
Louis
propunem
##igibile
primară
##vu
dezvolt
permise
figuri
Înch
oaspeți
abține
##ging
Cioloș
fabul
căp
livrarea
##tenii
discuțiilor
Camere
Economice
compute
calculatoare
##rox
rula
excelente
roagă
Zah
SMS
petrecute
cafeaua
minciună
##orit
Dispozit
BC
##zivă
spălare
BBC
Economiei
paginii
căsu
fotbalist
##ITATE
jazz
Condu
Merg
gradului
ist
închiriere
trip
destinația
IF
grădiniță
Recomand
autos
ființa
conducător
nema
Campionilor
##niri
##îne
meri
miniștri
arhitectura
devii
posta
##iturile
Lacul
intenționat
carton
##anic
sosi
Muzică
extratere
reforme
candidaților
culcare
reacția
bordul
##vard
urcă
considere
adau
concluziile
bărbaților
rutieră
interzisă
exterioară
premiera
It
continui
schimbi
angajamentul
orasul
##zari
##orabile
următoarelor
invitații
Plahotniuc
stadionul
##inet
iveală
179
întreprinderii
Basarabiei
cotă
bare
##ALĂ
Consum
Matrimoni
sosirea
shemale
utilizatorul
##roși
muncitori
trupului
Bang
garantat
existent
kos
sesizat
luare
diplomă
latină
Sfa
hotar
cedat
perfecte
nic
datează
Insula
handbal
FBI
Kel
Steph
Aeroporturi
Câr
mala
habar
##IVE
Erd
tabăra
benefice
umbre
anunțul
fuseseră
creșteri
Apropo
Balcan
##jar
violent
Puterea
Etichete
drepte
##28
Agent
deficit
fotbalul
##lem
sângelui
fro
##em
secundar
prăbușit
măm
##cinile
##rătoare
Înăl
încurajează
periculoasă
oțe
competență
revenirea
Lisabona
bâr
contractuale
paste
##URD
înconjurat
Imperiului
##reg
pierdem
concord
împle
echipaj
##bene
premat
alarmă
răi
Tay
iertare
eșec
##vici
##ience
White
stricte
presedintele
Pon
trezesc
rusești
##CO
##giilor
Eli
aduna
adresată
Veche
afișa
Procurorii
Raluca
bunicii
câinele
##fit
##mith
gigant
materia
senin
audă
intersecția
##lați
avantajul
registrul
animală
etaje
##ovski
compet
##375
##Tube
Temperat
apela
soluțiile
randa
Năsă
Tudorel
trimiterea
zodia
Diferen
tradiții
##țirea
lăr
statistice
Teore
impozite
cati
tenul
##oce
1977
Antren
my
compusă
game
amploare
UNESCO
urmați
întrerupe
Reșița
știau
flash
Evanghelia
Progn
decisiv
Miss
evalua
noci
goală
##cas
pază
transporta
##list
Pics
##field
prețioase
marcată
Tren
Vibrator
bogați
##ctat
formației
calculat
Deputatul
monede
Milano
##otei
componența
Supraveghe
Câmpul
Pom
Extra
Dun
preluate
Munteanu
navei
achiziția
săvâr
parlamentari
combină
analizei
instituirea
Les
Bl
uleiuri
podul
ancheta
greută
votare
inserați
echivalent
apostol
Es
mașinilor
Kon
tipă
##uleze
gătit
transformare
aventura
ajutăm
politician
Lans
reprez
capitalei
preferată
legă
discon
mișto
ținta
tendințe
internaționali
##gorit
ambasadorul
##vean
coordonare
FA
instituire
Conserv
plămân
izbucnit
afișate
Nobel
Iata
##zol
angajare
largi
##purea
englez
##scat
iad
##board
Mangalia
creative
EUROP
101
##oche
imensă
##CS
funcțiilor
Urban
Click
zonelor
cinstit
Oricine
Ansamb
barca
calitățile
exemplar
sărut
împod
machiaj
Pace
##imiti
glice
##utele
nemuri
106
neferic
Muncă
conduse
##Pro
anexei
Regatului
restricții
audie
miste
derulat
britanică
##26
##boy
stomat
raspuns
chema
Pământul
Serviciile
Încerc
Copilului
vești
##oze
remor
majorarea
Secției
ochelari
les
Insta
Administrare
vamal
Regiunea
timpurile
instale
laterale
Decre
păg
unit
paturi
nativ
Brad
sportivă
pericolul
vagin
alegem
propunerile
Chinei
cititorii
conspi
##sam
cinema
sensibile
Bucureștiului
contactul
tastat
sn
Tinerii
##ăta
Recent
Mall
comunitățile
Journal
hor
spiri
Sce
povestiri
formulate
acceptarea
acoperită
mouse
îsi
##zice
respinsă
apropia
autorizației
Politehn
comod
hotărî
firmelor
SN
respectării
decursul
teroris
Dosarul
ședere
permisiunea
expan
notificare
ușile
declanșat
Păt
arestare
roți
dema
Steve
monedă
transpi
vacanta
risca
cerului
prezentăm
juniori
privință
##opping
Relații
temele
documentului
AUT
##ee
vântului
constituirea
întâmplător
inculpatul
regen
Orange
operațiune
cră
mixt
socio
renală
blocului
prelungit
##onom
SMURD
Opre
##ntic
Preasfin
Năsăud
Uh
##ilian
bizant
Caraș
comunicații
ferestre
##chel
improviz
depresie
vacanța
cititori
oferindu
Stele
asfal
polițiștilor
##domin
cub
rochii
disputa
Studiile
respectate
intero
formular
sumelor
motorului
Intre
detaș
Ferdin
##iade
explice
Conferin
inedit
distruse
mergea
Românească
YouTube
ascund
participării
Mișcarea
Ash
Eric
hra
lovituri
visele
admirat
controvers
găsirea
##centr
ADOP
moneda
ieșim
##ptată
Volunt
aripi
sărbătoarea
Tribunalului
cardiova
##vide
farfuri
angajament
1986
bilaterale
##ificarea
asf
direcții
predisp
prostie
##heze
Rădă
neînțele
your
curate
trecând
tranziție
##iseră
diferiți
##ropurpurea
efective
Eco
provocate
camion
câștigător
diferențele
stricat
##imitirul
examinare
rândurile
platforme
gândească
premium
bunicul
trimisă
Viet
##TS
cuvintelor
##sdic
adaptate
##ușii
dispariția
##bang
##ieste
tamp
CAS
lovitura
spectaculoase
indicate
sănătoși
##mont
actorul
eficienței
##70
momentului
iste
descen
concepte
metru
intensitate
fluxul
Corina
plătiți
încântat
Foto
Medicul
##ón
##stim
Presedin
DVD
workshop
Libe
##finan
segment
450
Furniz
gandit
neconstituționalitate
104
curge
dezbaterea
##ilar
steri
urgent
training
canalul
conflicte
trium
##vite
răspunderea
textele
evoluției
##rărilor
incore
##mantul
europarla
configura
canapea
concomitent
1988
Ferdinand
presiuni
surprinzător
conge
implice
atribuțiile
pisici
demonstreze
Niciun
Voic
înne
infir
convingerea
declin
##uf
solului
inovare
##dache
dubla
obiceiurile
cîști
##cădere
Images
zise
Pici
103
##pol
exclus
prelucrate
cus
aeriană
muntele
regulilor
confisc
adresate
##aș
##spital
Tony
DC
confirmarea
introducere
##zã
Schengen
enerv
comandant
rasă
##iesti
sportul
atâția
răscump
buton
Ingred
Conturi
##TP
industrială
Secretarul
##urând
drăguță
reprezentare
lichide
Love
##prem
Solomon
reprezinte
văzută
##velor
Indic
celebru
neuitat
##eața
publicații
designul
inaugurat
wireless
Music
##terane
clasament
ciudată
paradis
Târgul
copt
Chica
lemne
controale
vecinii
cuantum
suce
uimitor
simțiți
durerile
Bălți
Asc
Cehia
rămânem
##șia
like
trimiși
asp
câteodată
Blo
Propunerea
frumoși
Produsul
organisme
eron
științe
1960
Harghita
##arct
Fiz
subsol
Regional
apart
convingă
175
Soft
##util
##andra
activelor
bicicletă
Misiunea
spectaculos
controlată
Cior
golf
baieti
Continue
consultați
clădirilor
intrăm
Adă
now
Info
definită
mijlocii
mănânc
calculează
fondului
Tara
plant
##șind
Fetele
°C
mecanic
##chin
Show
ecologică
##reață
##beni
venim
##In
spatiu
capitalului
robo
Dunărea
primăriei
arheologice
sportului
consec
Phen375
precizați
construcțiilor
sel
gândirea
preparat
musa
Team
Expre
GR
Lupu
Rox
Uniri
valoroase
pricepe
alcoolice
##News
științei
leziuni
Autost
cumparat
##otehn
strică
sălbatice
concentrare
cresterea
apreciate
terap
Matt
insulină
Conținut
Tin
înmatriculare
Serg
Cînd
Ambasada
grafică
caracterizează
##ărată
##very
combinate
renunț
băncilor
suferința
recunoască
##zului
Ialom
Mariana
##ito
Has
mater
coasta
##ciplin
afișat
Drăgu
romanului
Conside
Noaptea
Puțin
inteligentă
cust
pacate
##gară
Înseamnă
anulat
floarea
secretă
proaspătă
agenție
supermarket
traducerea
voștri
220
integrală
Înregist
buzele
Florea
capabilă
concluzii
aprins
clu
pelic
Sector
elementul
Scrie
piețelor
fabricat
pp
cunoaste
uniform
falsă
telefonului
japoneză
infecție
oricăror
divertisment
executate
căpitanul
##arda
trop
dărâ
operatori
usturoi
degete
dintâi
impar
bată
list
asistat
întreprindere
biologice
##laj
adapta
##oape
inevitabil
Inst
întruni
organul
Iti
analog
Rub
locotene
Cuvi
Share
vulcan
imbunat
scrut
împărtăși
Francisc
Femin
desăvârși
cadrele
verifice
melodie
look
##ead
corespund
Gigi
Getty
Dana
apasă
Audi
sunetul
Divizia
ez
Priv
pozițiile
tragă
breve
##uti
fondator
##cula
occidentale
Chan
Ya
##față
##ars
Chicago
echipamentul
Important
comunităților
1985
solidă
##orabil
##urne
dotări
copilăriei
Bloc
##pel
##ween
rude
##dt
vindeca
simțeam
subspe
cocoș
instrucțiuni
specialiștilor
medicin
##jel
nego
##off
##ziunii
Avra
##onge
economis
respectivul
muncesc
Conducerea
finanțării
Oficiul
gravi
Hi
Fore
beneficieze
Elisabeta
Texas
pictura
grafic
Transnist
Restul
întâlnirii
Joseph
Râmnicu
Ară
Dezb
Verde
sâmb
unanim
flacon
asiatice
emble
colțul
Doina
înregistrări
Clas
##MB
Tineret
diferenți
Gla
întoarcerea
Sursa
confidențialitate
Patrimoni
conexe
fiică
Simion
promp
notează
deplasat
##ried
generația
##giale
putință
tumblr
Chris
plictisit
componentele
##țenia
căsătoria
subordinea
recomandările
nins
optimă
BR
rachete
House
decurs
conflictului
vegetale
Ză
Cast
recepție
Ocup
amplu
Reven
bei
cărților
excepționale
activa
întârziat
Notă
Pai
figurează
transmită
Poporului
necesita
curățare
##ortat
vise
creditelor
pericole
incercat
montat
concentrează
autostradă
publicației
râu
Statistică
regret
##hai
Volumul
repet
ADOPTĂ
fură
##stive
##șeni
##hedin
Kn
##mentară
detectiv
##decum
lucrătorilor
qu
baterie
incredere
academic
##FF
măre
înger
##uita
portughe
reducă
##stini
##zel
amator
intelectuale
acuzații
cocos
##29
operatorilor
##aritate
Confe
înțelegeți
atâr
luptei
programate
citată
credincioșii
Spaniei
bombă
Laurențiu
petreacă
atle
Viole
avertizează
salon
respinge
pusti
urbană
foști
Tatălui
voință
##manuel
sfarsitul
##rans
Balcani
construcției
circuitul
pregatit
Mona
interzise
perceput
spectacolului
mister
AJ
Șa
Jandarme
Psal
Președintelui
##45
circuit
hab
verteb
Aceea
tânăra
instrumentelor
relevant
buletin
exercițiul
Iordache
eventualele
vădu
includă
vanzare
Revelion
lingură
##DU
abdomin
posibilitățile
cercetătorii
incompati
nostal
MO
partidă
Timisoara
cutan
##ntai
##lop
episoade
1984
părintelui
comandantul
ct
##tător
Constantinopol
PMP
infinit
##oroc
ordonat
Titlul
Iord
domniei
##oșii
ținea
favorabile
clădirile
fiert
##uzele
Johan
sugerat
oral
XIII
continuăm
slava
confirma
##rilă
lunga
##deam
satisf
amândouă
coboară
extract
Cioc
##mină
Vizu
splen
binecuvântarea
Oper
experții
Corn
unchiul
sovietice
Lov
dov
Amatori
Hu
##reanu
peisajul
beat
caseta
cauzată
imaginat
ceruri
pierdute
conflictul
Paroh
șefii
##ureze
parca
mirare
autorizare
intenție
##bați
așteptările
vs
Ludovic
dobor
minor
decidă
masive
##venite
##garea
##iciu
##armon
greci
inspir
dispozitivele
trecutului
Teritorii
șobol
bre
definește
Consider
amenajat
puși
echipamentele
##oului
emisă
##turilor
##jesc
Multi
reformă
ceapă
fundamentală
comentariile
performanțe
##onilor
Enter
##âta
transparent
structurilor
captiv
##nase
Stalin
meniu
afectați
administrată
colegiu
Crucea
##diei
omenești
imediată
britanice
dramatic
articolelor
portofoliul
descărcare
incert
doamnelor
##zești
Vorbim
unica
iubită
provinciei
amice
stresul
incidența
CRE
Făl
##oph
Mobile
explicit
##îl
specializată
tablou
infla
preoții
defav
replică
##dimen
cunoașterii
Bucovinei
Mihă
depozite
găzd
AI
vizitatorii
Duminica
##îi
zgâ
inapoi
achiziționate
MP
latura
reprodu
amintire
Văd
noutate
ascunsă
acestia
constata
actriță
condamnați
asculți
##judic
mami
##jeni
biletele
injecta
îngrijorat
teatrul
Tam
360
comunice
extras
opțiunile
reunit
jurisdic
Formula
echivalentul
sarcinile
Prez
credincioșilor
executării
veter
##wan
Total
incerci
impeca
recunoșt
Fundul
Word
##angă
judecătorilor
Luați
Christian
MD
urmatoare
carti
Asian
Analiza
##bina
Amp
clasat
ciuperci
unirea
deputați
autorizație
reglementate
trezește
dăruit
##oniști
Pește
peisaj
Caragiale
Teoretic
##zatoare
##ios
Smith
meserie
Hum
folosire
combatere
agriculturii
Merkel
Aștept
Calcul
Soarele
cuțit
închidere
plini
ort
##kh
împotrivă
schimbărilor
Hagi
Sufle
##zările
geni
grădini
fantastic
pasăre
cercetărilor
Fit
profesorului
Cron
pion
secție
Marina
termine
funcționale
feței
respingerea
mărci
Sprij
##țându
Exper
luminos
uitam
arunce
operaționale
contribuții
##anse
##mping
145
exclusivitate
izb
indici
##tiei
Lesbian
diminu
votului
membră
absolvenți
eticheta
135
eligibile
profesie
puf
##scular
alternativ
sangu
instalare
integritatea
francezi
realității
opiniile
mândrie
tristă
elaborate
Avanta
visat
Champ
##zona
Luxemburg
pești
aveai
recru
găuri
succesului
dorințele
Înv
##mări
versiuni
excepțional
##ALA
căru
generos
erup
supraviețui
hotără
spaniol
wh
linguriță
Propunere
învățătură
Catalogue
daruri
Structura
efectivă
##justi
##locu
telefonic
reglementări
##outube
exclude
electricitate
XIV
instrucțiunile
nești
cantit
dosarului
pasionat
dela
pertur
##șeze
circumstanțe
catolic
experiențele
respon
Marcu
vopsea
tradițiile
despărțit
server
antice
evolua
Petrescu
bucătăria
obținerii
##sian
Inten
pastor
Chil
priveli
considerăm
rudele
selectat
Televizi
plate
##hu
Scuze
Ris
frecvența
înfăpt
desfășoare
geografice
asumă
116
Iugos
##făcut
Ștefă
serialul
dlui
##itura
Orche
Doctor
mută
fetei
clipuri
partaj
colectivă
reușind
pronunțat
medicamentelor
strânge
reacțiile
##zuți
folosul
Turnul
melodii
masca
disciplină
pizza
inteligență
##rage
explozie
Erdogan
nepo
Natura
Mesajul
Award
regina
##lării
Scur
implementării
##uiești
Date
contrast
adăugând
colonel
presedinte
pese
Bucureștiul
conducătorul
Congresul
paradox
cheltuit
EV
Concu
exc
Rămâne
chineză
autobuze
##ider
concertul
##ders
1920
sârbi
m2
automobil
##nee
fragmente
festivalul
trimestrul
toar
118
pren
ana
Anat
grin
Arhitect
Destin
apelul
pensiilor
oprire
pompieri
Crea
dane
prinși
costis
Russula
campionatul
considerați
ree
Bod
gâtul
##cționată
mulțumită
făcuse
dră
Elector
psihice
cran
Kan
aranja
##HE
##vious
destinații
virusul
zborul
mila
examenului
bunăvo
fraților
cinstea
pisica
rod
NA
Sea
papa
Județene
telefoanele
trăsă
intervine
##chester
plantele
sot
Cookie
##non
consilierii
ocupată
monumente
Rad
pira
coordonat
aiurea
rănite
meste
comercializare
timiș
independenței
comma
evreilor
Copiilor
salve
amănuntul
suportă
Fel
teatrului
inac
panouri
determinate
dispară
Moldoven
placebo
##aza
democratic
module
##DS
literele
pula
Famil
##ILE
trupelor
știind
fenomene
##ziți
##ționar
incapac
##rumuse
liceului
tromb
##stern
reglementează
înțelept
##antelor
etnice
##iză
strălucitoare
încălcare
ciber
Rădulescu
judecătorul
producătorului
tabe
umplu
porum
vouă
retrogra
##riana
rezisten
Exce
încălcat
Securi
prescrip
##renți
Apus
lemnului
somnul
##imb
editura
chemați
Soc
norve
cîte
Prințul
Full
mormânt
rurală
ROMÂN
Manager
Scris
Lt
##33
##mpă
##alistul
##sivi
cabinet
calificarea
așteptări
împrumuturi
##onarea
display
dispuse
purtător
rubrica
XVII
valea
îmbunătățit
Barb
peretele
asigurați
inutile
ps
situațiilor
analizate
liderului
cărbune
Colectiv
străve
Fratele
toaletă
atacurile
necunoscute
##oglo
ilegală
sărăcie
Adresa
plății
##uitor
Rare
Distribu
##vantă
solicitare
1974
##ardo
##asele
##side
rin
Medicii
ureche
păstrate
miracul
straturi
ACT
nuci
abordat
und
respiratorii
confrunta
acope
solar
plăcute
rînd
##Co
mecanisme
Argentina
informați
logic
Sfinților
comercializarea
datei
strigat
înscriși
Evolu
chimică
Aug
www
indicii
pesc
##ntry
feroviar
Cursul
impresie
Roșie
Nok
##IO
certificare
restaurantul
concurenței
Flash
altitudine
stâng
Hong
Iu
Nick
majorității
urăsc
Presa
##cinate
recrutare
posibilul
deplasarea
Mile
limit
##cific
albi
struguri
seturi
Baza
avertizare
CO2
supraviețuire
bară
experimente
Tradi
restabil
antrop
legăturile
identității
Casă
incomple
Virgil
seriei
Sincer
arbore
observații
dintotdeauna
spion
justiția
pătrunde
ceasuri
Roch
îndelungată
##tase
minorităților
Starea
##ciți
verse
forte
Mele
Andr
##opolit
amintirile
tovară
##fini
Ron
universului
săpun
deodată
##apro
##tiția
scufund
laser
înfricoș
răsărit
##xeli
valabilitate
reprezentate
îndrepta
partenere
poetului
Ala
prejudic
colesterol
amar
strânse
Praga
magic
amenajate
DOM
proiectate
Cererea
Kit
împărat
##kes
review
##intelor
##riană
##ietul
Dal
176
Felix
recupera
cetății
avansată
asigurăm
intervină
Lipsa
How
norocos
chirurgicale
veneau
##vana
acuzațiile
Investiții
dozei
##inării
Teren
magn
înșelat
vânzările
##mintea
##gureanu
cără
tendință
dermat
Tău
ciz
extremă
poste
Principalele
Gimnazială
Roșia
bili
plătești
mall
purtate
idiot
soții
imaginația
Prime
Iubirea
prelungirea
liceul
Gher
numeroși
punând
agricultura
Facil
##ceau
primej
Tudose
promul
##hanghel
Mia
Durata
folclor
Coordon
mănăstirii
tiche
##ITE
confis
impresii
##zn
##ures
##44
altuia
ocean
fostei
anonim
Analiz
bag
raportează
Ela
omo
scute
##HA
contabile
INTER
##pățân
coordonator
##ther
raft
substanțelor
##jește
stând
anvelope
Aban
##ștrilor
indispen
indicator
Epis
derivate
##thur
despăgubiri
##ctiune
optime
mecanismul
comedie
fet
mâncă
distrugă
##iștii
mângâ
##oriei
negri
deserv
regenerabile
##NTE
mute
Măsurile
achitat
##SI
Față
##ciclope
designer
##cao
Manife
dură
studia
întrerupt
văzând
Grigori
substanța
Deocamdată
odini
##melele
iernii
pavili
Rac
echipat
##jezi
Descarcă
##bert
subți
Henri
fizica
pușcărie
administrării
sfântă
surpriza
titular
##orite
##ferentă
preuniversitar
bulgari
artiștii
câinii
136
Chel
urmau
impresionantă
scol
1978
războ
1969
actiune
Ox
Tut
##lla
specificate
dovedesc
încor
##ficiile
Islam
conservarea
finis
materială
stati
get
ulu
##siva
aprofund
Presupun
tipic
adaugat
nesp
organizeze
firea
amintirea
##das
telecomunic
##alid
logo
facute
Carl
sansa
Disney
manuale
Anun
afacerii
apreciere
conferinței
excesiv
agro
sintag
oboseală
blon
BA
folclori
##unge
Tănase
##cutive
Pant
parlamentară
Moartea
ministerului
Ecu
amplasate
supor
obiectivului
titlului
transmisă
autoht
Afișat
Celsius
simpl
asteapta
Podul
pulbere
italiene
Www
##evalu
urmăriți
vier
potrivesc
Dy
Lore
ber
##ancă
eșantion
Jackson
calib
evaluări
treburile
Penitenci
Mut
proprietății
panică
Tun
gr
##inichi
moaște
eliberate
intense
Ordinului
testele
domnia
înțelepciunea
##uty
scal
angajator
Întreprin
1975
Noiembrie
formulat
Gaze
amenințări
înghețată
gazda
icoane
revoluție
dezamăgi
sufletească
măsurare
##rad
lîngă
critica
Nivelul
umiditate
minore
asigurărilor
Mașina
senator
Procur
##enea
##disciplin
dezbăt
rază
bugetară
universitate
Cultura
##gro
##gențe
rapoartele
beți
smeren
greșelile
##vision
Meteor
Textul
repeta
amintiți
sef
Dumitrescu
infer
surselor
ocupate
Abanos
tabere
Mehedin
1982
conferi
muni
Centenarului
rezonabil
##pește
crize
legislație
recuperat
lacului
elastic
monarh
GPS
desface
influențat
Lăsați
secțiuni
Cercetă
lacul
strategică
sâni
apus
Postul
revizuire
crestere
##otro
nobil
pătruns
CIA
alu
Cin
Shi
căsnic
##ieli
obiceiul
##OF
știre
talie
sfîrșit
zahar
formării
aplicațiile
##ferenta
Liceului
##ille
##ticeni
Sire
##pedia
comunitară
echilibrat
Poarta
dispuși
judecătorii
dinamică
mușchi
cronice
Cumpără
compoziție
parul
CARE
pastile
multin
##ics
încetează
##oviz
renume
antibiotice
prepon
subspecii
Faci
polu
UK
amprenta
concordanță
asemeni
coșmar
refuzul
fumat
##beth
afișează
##ILOR
declarată
prezenței
DG
mințile
dorită
Denum
circulației
Gir
refugiați
Promovarea
chestion
##35
Plane
Procedura
contractante
##job
importurile
statistici
Romane
șah
lupt
școlari
##ourile
producerii
grop
exprime
negociere
internat
fide
funci
săptăm
##exp
Profesorul
Bulgariei
165
##marin
Cezar
mâncăm
##cir
##ska
pâinea
provenind
1947
1981
English
##canu
stabilă
Clinic
toxice
Drepturile
acciden
Sunteti
mixte
drumurilor
sq
urechile
plăci
prioritățile
reglementarea
oric
bursă
##aren
##ațiuni
Manole
eficacitatea
constituționale
Doct
râde
atestă
##dim
Suce
Sony
Recep
instituit
confirmare
1979
bus
##ntive
Oră
Noroc
primăria
principiului
descuraj
impună
interveni
prisma
Rolul
##ULT
lega
filtre
opiniei
evreii
conținând
##ás
ORD
municipal
evidentă
##ITĂ
dispe
Conce
Cernă
experienței
Stăpân
102
##ün
terasa
##geam
inferioare
Altele
##cționeze
Țările
conversație
numita
valuri
exercita
119
voteze
Măcar
solidaritate
##onaj
sectoarele
Instal
evidența
tulp
înainta
perechi
mințit
legislat
cuvi
1930
invitație
Set
făpt
concreti
##ashi
artistului
##tero
anteri
er
iarba
practicile
tehnologic
găl
ficat
transnist
jucătorilor
ceremonia
##spăim
1972
sange
inedite
tatua
Accesul
separată
Sinaia
##stentă
groază
Intrarea
Kong
##rif
##peten
Direct
Mântuitorului
cogn
transparență
Dragostea
Firma
consolidat
retragă
##hari
imn
gândiți
##dentul
##vy
violenței
Industrie
pierderile
venite
Ultimele
Buletin
furn
##mpi
proiectarea
performanțele
consolide
terapeutice
evidențiat
cf
Boris
chiria
Regelui
AU
precau
vizuale
neobișnuit
hramul
crima
motoarele
##ando
costat
##rentele
telefonie
Mădă
Spirit
stațion
Octombrie
Mici
ratei
terenurile
proporții
lesbian
Sie
Domnișoară
##ticul
orașelor
rețeta
faptă
foloseste
Clasa
aventuri
UEFA
găzduiește
##riș
alcătuită
plasate
Previous
Friday
măru
bosnia
##ICĂ
consultare
sporită
Note
ființei
usa
ardere
Sebeș
HOT
mișcările
##reni
profitul
Rata
iubiți
clasificate
semnătura
acută
iesit
##ionarea
tricou
autostrada
zeu
Instagram
Aco
arestați
##ercul
evacuare
##kom
##reața
DS
usu
ștamp
Slat
Eliza
LG
Kate
etapele
manipulare
planta
Vedeți
însa
##pteze
basara
preșcol
sărbătorit
spală
firul
##UP
coduri
Contribu
UV
Mara
##roz
dovle
proto
conservare
##iele
Anghel
##uturi
foi
anticipate
128
Link
##vski
##uiri
Cerna
living
școlară
##durile
negocia
lățime
mândri
##ology
Voiculescu
stațiunea
stadion
Mitropolit
TO
sărbătorilor
##lăt
artificială
Combin
interviuri
marină
Some
nicidecum
carduri
Șef
blestem
spuneau
cire
circ
##sericilor
atribuit
informarea
duhovnicească
##posta
treizeci
Tour
terapia
nejusti
demnitate
##îmb
io
Suma
CĂ
international
țără
supuși
insulei
durerii
##pti
instalate
Apocalip
pics
Seara
competențele
##tarului
vreodata
Energiei
certitudine
Sava
soluționare
criteriilor
ediției
emisii
universală
comenzii
##ocau
bisericile
##vada
muște
școlilor
conțină
##Hz
întrerup
RAM
ocupare
mântuirea
montate
3000
surori
Turism
Mid
1500
insolvență
triunghi
obtinerea
##cipe
stagi
##itatilor
duhul
Stoica
Start
plătită
dezvoltată
ciob
beneficiarii
##kins
hardware
##stești
excesivă
primărie
rezistente
##opa
lactate
Rug
##stiei
semnalul
îngropat
prezinta
must
teritoriile
Mig
spal
Vatic
văzute
violente
descoperire
##cari
Spun
organizării
Tai
călcat
##mez
soră
full
speram
necore
##unele
examinarea
1973
Persoana
roluri
adăugați
îndru
cerebral
plățile
înaintat
difuzat
ministerul
bit
##ERS
consiliu
tribunal
##ierelor
confruntat
celulă
file
funcționării
Lot
sunete
adauga
salariului
##meu
jucăm
slog
actualizate
##cău
vizitați
Folosind
gravit
##cis
sectiunea
asistenței
EF
rochia
atașa
excelență
##întului
Caz
Asigurări
piesei
##mic
stâlp
Cinema
pedepsei
melan
##tatile
fiicei
repetă
Haideți
##ence
cumpara
contacte
reclame
Curi
Special
##aron
preventivă
luam
înscrierea
porto
amorti
##izând
pătrat
##dean
aceiași
datoriile
##venită
eroi
maro
prejudiciu
##iest
obligație
Colle
beta
Voiam
Wiki
nerespectarea
îmbină
masc
strategiei
bărbatului
coloană
cord
Cristea
găzdui
asfalt
Jas
învinge
scopurile
numim
##onime
liniei
stadiu
Contractul
##zătorul
intotdeauna
##bony
1939
fixă
rinichi
expirat
CONT
consilierul
punerii
obiectelor
secven
Hill
declarate
Responsa
citim
încuraja
substanțele
agrement
Arthur
telespect
voluntariat
Domeniul
colaborat
##BS
emisiile
studiază
Hua
doream
disputat
relief
autoh
Geo
Grădina
##ostiv
salată
mulțimea
înconjoară
Ak
SIM
Patriarhul
sk
ajutați
frunzele
atribuire
evreu
menit
prun
##cade
Mah
motori
metodologice
mănăstirea
serin
##ids
Ghiță
Spațiul
organismele
singurele
hiperten
##secunde
jandarmi
nit
vedete
atacă
robot
crescă
integrată
foaie
materii
ghini
spânz
##seala
zadar
cupru
construiește
coree
discuri
absor
combinat
deștept
alocarea
dezamăgit
Referit
Vila
însuți
independență
Silviu
BCE
##rene
##dicele
nuclear
Angliei
Model
ceață
săge
Pristina
psihologic
Event
##ctivitate
sânii
##atar
##nirii
##onice
##inger
creația
feza
##dil
cititor
155
tablete
calendar
Nicol
dotarea
##lyn
tinerețe
Magistraturii
DI
##orva
dulciuri
##ACT
arestarea
1983
factorilor
gasesc
##irescu
rădăcini
publicității
glasul
bucuros
comisii
oara
cimitir
Legi
umăr
oficiu
##anos
suplimente
comentat
scoatem
##grij
închisoarea
Adunării
aurul
steril
##alth
Aer
ilumin
dobânzii
##ficient
Sora
necazuri
##bis
atenției
rugăciunile
Biz
nastere
Sectorul
Alice
provocările
##ativele
Sună
##juns
##lero
##vală
tenului
##jer
##onie
Sarah
navele
contestat
##ralei
CAR
Ecate
logica
##cenic
Gil
interzicerea
procentul
americanii
livrate
##vierii
identice
atracție
achiziționa
convor
cunoștințelor
președinția
picături
bacalaureat
știrile
înfr
Resurse
Tehnologia
amă
chestiunea
măsoară
diete
Geneva
agențiile
plastice
latina
adunarea
gălă
##cript
##ificare
balcan
prejude
Antonio
117
irlande
##ctați
##VC
dinții
Energie
##RS
nee
minciuni
Prognoza
rotun
sociali
##batori
planificare
garante
gluco
ardei
Williams
1976
abilitatea
vand
Edward
etan
semna
limitează
inițierea
Referitor
Poezie
Mes
##ozițiile
aniver
feminină
alung
##fei
reporta
Lituania
##ings
eșuat
aria
Nokia
patrimoniu
capabile
biroc
trandafiri
teroriste
Pornografie
vechile
138
Labor
Stabil
##loween
funcționari
luminoase
nesim
Well
Bern
antich
decorat
odinioară
##ssy
cloc
Santa
Scriitorilor
##curea
Fălticeni
rese
simpat
stilului
chirurgicală
semneze
împa
1971
arătăm
rasa
MC
bazei
moștenire
Hans
purtând
distribuția
##ONAL
tension
performante
dif
frământ
defen
împărtășesc
Antre
autop
Chelt
poata
numărat
doctori
ART
Son
spațiilor
parter
rugăciuni
##zăre
semnificație
Joaca
situează
Mică
aborda
înspăim
asigurate
modalitățile
șefi
##oste
REGUL
originar
caselor
Oferta
Vasilescu
Galeria
regăsește
##mber
observate
debloc
bătrânul
plimbă
întâlnească
Sche
emiterea
mergând
denumire
anchetei
Politică
feedback
frust
neutr
pădurea
perfecta
presupus
servesc
Autorul
Fumat
##ilarea
##dig
##elect
formulată
Vietnam
UL
Miron
Project
Renault
3d
##PRES
land
recunoaștem
insistat
Lie
apelat
##reen
silue
Walter
##cepti
romană
Asiatic
slăbit
reumat
congre
autohton
##parat
Regionale
liderilor
cunoștința
intuit
scurta
##gio
1919
crescute
milisecunde
Apre
cuprinsul
lăsate
automate
analit
evoluează
personalității
expirarea
dureros
##omacul
seche
precedentă
hotărârii
parcuri
chitară
alergat
Drama
distrugere
##ACE
precădere
adevarul
vizibilă
națiune
arome
șters
##fone
șme
prealabilă
îngeri
constituțional
Buch
expertiză
bucatarie
categoric
##iezi
##ciale
Blon
democrația
chel
furnizeze
disfun
Magaz
dască
Franco
teritorii
Bd
mision
MIN
Exer
scuf
aprovizionare
decorative
pofta
##ür
provincie
nebună
liga
##32
tentativă
Dezbate
##metra
Excelen
averea
Actu
alineatele
însemne
administra
infracțiune
parțială
respirație
Fred
Sir
mulțumiți
biletul
campionatului
Trage
îngre
magie
Prețurile
hidrogen
diseară
rab
Monte
căsătoriei
superb
Atel
Ingine
scap
vindecarea
picioarelor
mormântul
reprezentativ
consolidare
tărie
atașat
transporturilor
reglementările
Virgin
Venus
corupția
Comunicarea
Frumoase
##arus
curățat
##cã
propriului
230
braz
prev
premiile
căsăt
autentice
pregătească
Bibliotecii
##integ
trun
ultimelor
oricui
antise
stârnit
Tânărul
pierdută
corecta
Umb
Rugă
îmbunătățește
Civil
Fiului
ziarului
Scott
Limbi
zahărul
##bează
fast
Tes
##ato
Credit
stocate
fondatorul
imbra
uscă
comiterea
##dios
listei
incidente
Voda
##descu
Apare
maghiari
speranțe
##ink
reacționat
emoționale
Georgescu
lipsite
memoriei
Piz
instanțelor
existenți
##rada
vedeam
##menească
##nicilor
lumână
apartenența
1949
lenjerie
cuprind
izolate
Universul
interesului
Tranny
Infrastruct
##99
turiștilor
contactat
rute
##ay
##milor
##ATĂ
Pak
meteorologice
notele
comunicate
Fiscal
inteles
renta
propovă
armelor
operei
1964
lasi
##nim
##mească
Hon
Homosex
desert
Secțiunea
opoziției
zâmbetul
Major
Inima
Ank
câtorva
greco
Grădin
Orient
investigație
Vocea
Florian
temporare
Pel
solară
exprimată
acuma
##schis
##Re
îti
Vegas
##Script
Modern
estetic
##oale
mexic
pornografie
grecești
reluat
mobilitate
subtil
##isajul
caci
reca
Dragomir
deliber
Imaginea
suprave
ghic
definiție
înro
amestecat
big
Scoate
Cance
promisiunea
schimbăm
Johnny
Wall
Ialomița
##ochi
provizoriu
conducătorii
ideale
dispreț
barbati
fiti
pietoni
Evenimente
omenirea
rostit
##vița
##riul
tabloul
decesul
vasele
Rio
##36
formație
rară
##mpe
Metro
echipate
includerea
126
necunoscută
Alp
invizi
Statutul
vizitează
finalizate
##rânce
mam
Ji
Jam
##quirt
opoziția
aniversare
finanțelor
Maje
##dător
Alexander
Mărturi
fos
delicat
Spectacolul
efectuării
Turne
Află
Interven
Câmpulung
componenta
dăunătoare
##ilină
comisi
##acitate
Galerie
##chine
alerga
fotografiat
sejur
SIDA
Karl
asistenta
acceptată
index
##dom
Bibliei
##bs
Lid
atracții
Johnson
Izv
stabilirii
sez
deranja
testarea
abdomen
cercetător
168
hidraul
Finanțe
sara
semnificația
Tehnic
fină
scădea
doreste
indicatori
Blan
Cazul
învățătura
Avocatul
Soarelui
Week
##itudinii
dialogului
jurnalul
##stiri
agricolă
tabletă
Blaj
brune
##CM
apăsați
lote
stipul
preparare
EP
acuzați
1967
refacerea
Intel
Official
marm
alter
tere
Septembrie
dispărea
sulf
țea
##aproape
1917
gravidă
neaut
temperaturile
deranjat
nevinovat
magazinului
##uant
catolică
pasionați
lipsi
Boe
recuper
rămasă
contamin
sai
5000
Wood
psihic
contacta
orelor
particulare
secolele
culcat
geografică
litru
##pp
Locală
Penis
îndepărtarea
activitati
actualizarea
sărac
obligată
altădată
asume
Capital
fețe
plăților
Tulbu
##rini
##itudinile
necredin
tristețe
##mega
Gata
variabile
oxid
cuantumul
bulevardul
coregra
blocul
127
Land
##uos
##ques
Amazon
By
Dj
tragi
Stați
scâr
comisarul
Slobo
##boreze
valutar
Thail
hy
##rod
îngrijiri
vulnerabile
poziției
Filarmon
nerăbdare
faze
distincte
##niceanu
scenariul
Siguranța
##olia
sinceră
##ois
datoriei
Vreți
verticală
săptămânal
##rot
tind
momentan
Montană
Eg
evidente
##țiți
lanțul
răsplă
IG
Sistem
##sist
apeluri
vânzărilor
Deut
amplă
Slatina
gestul
necorespun
debu
stiti
App
îndreptăți
Crăciunului
ceilalti
corporale
normă
praful
##tage
întreprinse
cumpărate
solicitări
iOS
Eduard
pornesc
identifice
##rean
Rai
##mate
necondi
confuzie
zin
distanta
cerne
Roger
artificial
acordurile
Satul
coco
sentința
##aliei
##hon
colegul
Preț
Centre
ucidă
operațional
necesara
educative
Cui
XXI
##năt
##sed
alfabe
lovi
satisfacție
neamul
cifrele
##iaj
violet
Dipl
amplasa
Politic
##unătăți
Feminin
##puș
eliminate
biblice
descoperită
nucleară
Preda
etapei
iposta
maturitate
căpitan
ambalaj
##ml
##arbă
114
frontiera
facuta
intrați
pistol
##rindu
Experiența
##clam
cititorilor
dobândit
evaluate
încăpățân
reciprocă
FO
parcarea
regulamentului
puteai
rolului
îmbunătățească
Facem
Cernăuți
##ulare
##tain
Penal
bagă
urmate
Apartament
Rid
##gir
Descoperi
Pacienții
senatorul
sânger
conștiinței
1965
atribuțiilor
pieton
interesată
##BO
înregistrați
vinovați
consolida
nece
vra
##iliu
reflex
romantic
##wi
##rial
umeri
slavă
viziteze
referendumului
Ltd
Glori
ordonanță
răspândit
indicată
grupă
introdusă
lunară
catal
psihologică
autonomie
alti
armat
existentă
##ozei
iubitorii
creștinilor
autentică
catolici
Ein
albine
maghiar
summit
diminuarea
subiectele
procesare
jen
##uck
credinta
Doresc
reunește
ipoc
bif
avocați
Tg
##oid
Eta
tinde
reducerii
##san
A1
rațional
majoritar
sabia
parola
îngh
Legisl
##ão
cuminte
rezervat
îndepărtate
atentie
Avent
pig
ciclului
Drepturilor
Simt
Noile
fericite
##rena
Supraf
##alizata
Zeci
abilitate
cunoașteți
Tineri
Best
stimula
salariați
mentine
încît
viitoarea
cript
tranzacționare
Orhei
##sările
##aptele
autorizarea
##URE
interpreta
mandate
hardcore
gastro
autobuzul
Dialog
##liți
##duse
elegante
Time
construire
contabilitate
răsfă
Jimmy
HP
celebre
tensiunii
Dragă
Tibe
fotbalului
McC
##ptează
##arhi
farmac
gat
miting
Monitorului
Document
revizuirea
Crit
numeroasele
##jug
repub
Cut
Concent
Felicitări
##dafir
capătă
Gul
##uții
##ged
Ameste
consultarea
umanității
1938
vorbeam
Astea
primari
disconfort
accesat
furtună
adversa
##onează
reia
amenajare
compară
câștigi
##otat
corn
Samuel
comportă
##ȚIA
fasci
matur
avertisment
Adi
fotol
##sop
##ționează
##iler
agenților
festivaluri
Avraam
Paști
tonul
podium
Unire
pronunțată
Pacific
recomandare
Viteazul
Zid
##rinei
Alegerea
creați
integrării
culmin
omori
poștă
proe
secon
##mării
statui
zbura
Credeți
redactor
divorț
##istica
anunțată
lucrători
240
Muntenia
detaliat
Ign
aportul
auzim
centrala
Manchester
vizitatorilor
Șoferul
castel
minge
Fro
născută
centura
Vel
facultatea
##ters
zaharat
zicând
Supraveghere
setările
solicite
##rug
complicate
CONS
Bate
fraud
terorismului
Cerin
Bay
Energe
febră
botezat
SEC
pediat
Commun
exploată
metale
##ilei
##umin
Volks
##ZĂ
ecologic
Ku
veci
supără
Filat
încheierii
aducând
aneste
Rețea
stratul
păstrăm
nepă
office
turnee
moldovenești
##renței
completare
șoferii
156
porci
Isaia
procla
Posibil
proporțional
transplant
Poloniei
documentația
crucea
piv
principalii
ambasador
insig
privirile
funcționarilor
ziari
atractive
vizualiza
##lata
brută
Jess
Hotărîre
împins
olig
schema
țel
Țe
constând
trupă
vecine
soldații
Articol
consultant
echilibrată
Skop
cristal
aparut
scoaterea
sporit
##onică
##vod
îmbunătățiri
disperare
navelor
profunzime
omogen
Jup
Kh
##udia
creditele
stomacul
experimentat
verificate
1916
Jeff
aranjat
##ffe
acva
realizări
motivat
brațul
Inspe
Părinți
sorți
macro
Alianța
Jur
Vara
abordate
Corin
uniformă
JavaScript
Aiud
ample
reconstit
municipiu
violența
vehiculele
Voluntari
înțelesul
750
##ulă
##onele
natal
neregulă
favorit
##mintele
Marketing
hemora
Platforma
portofoliu
Recoman
înă
actualizat
printe
sensibilă
cafe
iesi
onest
poștale
fabricație
##arcați
hă
autorizată
Liberă
beneficiar
Legenda
investitorii
Iacov
##oreni
ouăle
micile
autoturismul
Specialiștii
##row
discriminare
##cuse
naturi
contraban
împodob
victimei
anticorupție
##here
Deb
Mioveni
unitar
Sighe
musulman
Soluția
dispute
147
arunc
##verg
linist
creativitatea
baterii
##venta
arhite
trasee
food
Rat
ambasad
înmân
Revoluția
Pula
statistică
adormit
legumele
rezulta
focului
REGULAMENT
System
Iube
etnică
Uz
organice
##rieri
cheile
Cheltuie
melodia
##ocrat
Titan
##enie
Voron
##roton
Fort
Brat
Fru
##tional
diverselor
preocupat
definitive
fermieri
##FP
##ceaf
##iziune
rădăcinile
Alexandria
##ank
bisericești
Cante
jurnaliștii
săvârșit
DAC
Aviz
strica
combinații
##vet
strâm
obez
scandalul
lăuda
##giat
maestru
##ușe
soia
Terra
rechiz
##vând
răcire
titlurile
Termin
filtru
încălțăminte
camioane
localnici
interbel
diavolul
Krem
##cet
rămânând
##desc
vecini
Întrebarea
Hist
nepri
burse
sedu
tehnologiilor
eliminare
neurolog
Brex
obstacol
Badea
templu
diversitatea
lateral
inteligența
ieftină
schimbării
abordări
preferințele
Calitatea
margine
corpuri
Îns
rezident
mulțumire
Bost
##usem
Securității
înști
##rane
muc
promovării
investitorilor
mișca
Agricultură
Kir
anunțate
excursii
justifică
imposibilă
râv
fondată
##cast
pânză
dinamic
terți
excepții
Alianței
##ropol
Mulțumim
##seaza
subțiri
Mănăsti
întărirea
Adriana
##jing
##iscri
Celeb
Solicitați
distrusă
##orată
glon
Următorul
cock
regulate
sărăciei
sole
reînnoi
##ION
##vul
##ferice
oferirea
Amând
Amster
virtuală
împrăști
centimetri
detenție
Zagre
Populară
Frun
închiriat
##resant
derularea
nemi
discute
acumulate
Halloween
noutăți
saco
rolurile
Hun
gruparea
scrierile
##itant
personalizat
scenari
artificiale
niciuna
dorite
##izăm
nesă
lăsată
##cuși
importurilor
asociație
infil
##lau
Danny
valoros
Fact
patronul
##alon
împin
poalele
Haga
##oric
cunoscuta
molecul
##ctic
deținută
ceartă
Micul
certificatului
națiunii
CSU
detox
nasc
traduceri
B1
denumite
focuri
##ătorie
Revoluției
bacterii
mecanice
unghii
124
##sionale
##apo
cumpărarea
invita
diametru
versurile
făgă
abonament
consens
branduri
Episcopul
amestecul
registru
Brown
factura
Esc
lingvistice
omoară
Dumneav
Jes
Acțiune
creației
interviul
Operațional
dotare
sofistic
Preci
cupluri
divine
obții
Sfantul
începere
##stați
##anterie
reușim
cuprinzând
Ciobanu
pagub
Conținutul
furnizorul
descurca
maghiare
##icole
ideilor
Mili
Regulament
comitetului
periodice
##iercurea
Record
datorat
##atil
preluată
consimțământul
telefonice
##ținerea
dict
Royal
##abilă
##tită
gâ
Soțul
distribuite
Dog
gon
##istului
recomandarea
procesor
##ativul
##tatorii
Back
arătând
ecranului
Transnistria
Meciul
flexibil
149
ging
încurajat
săp
aprecierea
##pesc
racord
specificat
##cționale
prezentări
action
prevazut
demersurile
secretele
Forțelor
inundații
modificărilor
##rogă
episcopul
complexul
echipelor
Mitropolitul
##onica
mamele
aval
drume
sha
vide
ducea
editor
Mehedinți
fiule
Stadi
##tã
diplome
depind
tuburi
jet
conștientă
tratată
rundă
algorit
ultimului
striga
Columbia
cofe
scriitorului
poruncit
fierbe
precedente
vinovă
reglementărilor
Pand
Ungureanu
Inc
VA
Ky
##Fi
Ingrediente
iute
feminine
PM
furie
reexa
palat
##ison
desfa
căutând
popoare
convinsă
exacte
Motor
reușite
tura
Producătorul
evitat
nazi
dominat
##tam
Candid
sfaturile
High
garnit
extinse
Varșov
remediu
insistă
definirea
complicată
Wat
Baby
suportate
##oreze
Like
aromă
adevărați
Gang
celebri
iubitor
Caranse
Vita
Deleg
scări
vorbiți
1956
audiență
Latina
Pussy
grafice
beneficiarilor
reading
bov
##omb
sursei
internetul
monetară
aducerea
##CLUS
Press
virtutea
independenți
comuniști
OS
brandul
autospe
##andri
îndeaproape
maritime
asumate
formatul
rezistă
idio
privești
##ENE
fure
înregistrării
##eama
aroma
carbo
nevoită
tragedie
meșteșug
##yright
porții
civilizație
șer
zborurile
OSC
nevasta
cumpl
ESTE
legiti
bibli
Stock
vrăjma
Dați
limitarea
întâlnite
unchi
rezumat
închid
discret
##fața
##rupt
robu
necesitățile
prepondere
Anterior
iran
##yne
optimi
TF
punctului
deschiși
##cif
Valori
inflației
foștii
sensibilitate
##atirea
Tati
incepand
grătar
dreptatea
Metal
Mediter
întrețin
nedre
desk
garanția
apărută
datoriilor
dorințe
##cedone
Poziția
acvat
##actul
Respect
##fea
ultimei
digestiv
##arest
aferentă
1946
Julie
aport
apuca
Crin
verificări
tubercul
nominală
teoretice
Ble
ofertei
##ătoarele
pardo
slot
introduc
diare
alini
Aud
șome
Good
coordonate
fierbinți
Capitala
Sexdate
Corpor
șaptea
înviat
OP
##ocar
judeca
Citiți
întâmpină
stere
Înțeleg
##roizi
Dobrog
ceapa
granițele
stric
ordinele
Mascul
senzori
bătălie
pantofii
ciocolata
austriac
##marea
Fan
Ansamblul
vindecat
##netice
Întrebări
competent
comportamentului
pensionare
veghe
răsf
intervale
cană
grosime
PDF
##atom
dânsul
##rabil
Material
Inca
trecuți
adoptării
arii
monta
modifice
împreuna
##lac
urce
partidei
reali
instalațiilor
gestiona
umed
ceramică
porec
fixat
reuniune
mărun
sab
Gel
domnișoară
variată
alertă
##idon
Crăciunul
yoga
socot
Cala
conducte
Vlă
##otera
determine
lepă
Creangă
fript
derulează
Comerțului
cuge
defecte
gan
repertori
cool
Alții
Lângă
setul
##tist
CEC
înfrumuse
##guvernamentale
semăn
copleșit
acizi
Cooperare
brad
încălzirea
sugestii
nutritive
Nikola
##nilor
Prezența
lucrari
##șterii
Nicu
##uer
Tabel
Decebal
jo
##escu
##tionale
ardele
convinși
sporirea
##ching
Kremlin
##scrierea
Convenției
neplăcute
pene
Dintr
dezbră
Operat
lovește
Cooper
Adolesce
Adu
devenim
##utri
##utatea
desenate
imaginație
păcatului
Will
donații
SUNT
păș
urmăririi
culinare
AGER
Import
restructurare
scriere
muzee
##cinat
comisar
grași
##tabile
altar
##pes
noroi
Casino
##rorile
absolvent
colecții
ferma
creditului
chinuit
gaură
declarației
învățați
remarcabil
Shake
haina
primind
Ate
ambulanță
ploaia
Sfant
scuză
cardiace
que
imobilului
cautare
Humanitas
Insa
Ann
folosirii
guvernele
Tira
##îna
mizerie
##denții
hepatică
planurilor
încrederii
donat
Brian
mortal
Comunitate
biroului
relevantă
Dimin
funcțională
##manul
saptamani
Huawei
##CP
secții
Mediaș
șop
universale
sferturi
mel
mesei
##vantul
fenomenului
Lupta
postura
limf
garantate
radioa
asigurând
##cop
PAR
bânt
așteptarea
Vechiul
descoperim
bolnavă
ke
USA
inele
spumă
povest
teorii
șantaj
Știința
Protoc
decid
neașteptate
mușchii
concurența
Anne
multil
Spuneți
Roxana
##rer
antip
##yd
Principalul
Întreaga
##iană
Cli
Amsterdam
vou
gastronom
Text
fișierele
##raft
Piesa
solutii
##tti
##verii
geanta
anuntat
suni
fasole
locuinței
Promo
sclip
##vente
alianță
avute
##uiau
poftă
##șteni
vroiam
aeronave
129
deficitul
doarme
trend
impuls
##ȚIEI
Codruța
Lucre
##omul
demnitatea
Participanții
neleg
imaginilor
bunului
atragerea
nefav
##uiam
retori
noct
144
ACS
Episodul
Farul
Reacții
Serghei
potrivi
calculul
dependență
recre
romano
Ședin
croa
gândirii
Belarus
Ecaterina
148
japoneze
grabă
rându
Climă
Documentul
înstră
146
##tiu
aburi
parcului
pregătim
##URA
pregate
Jones
conteaza
rosu
epocii
bunăstarea
zică
tăt
vită
##nței
iro
Perform
arunci
Doamnelor
##itelor
percheziții
Pret
deschideți
solo
proză
Slobozia
anverg
##urele
##uială
Dacian
Prințe
moi
inche
##sport
urs
rezistat
speciile
tarifele
managementului
Fiș
instala
terorist
bulgar
##hide
psihologice
sporturi
recital
Practică
greșite
Dobrogei
distanțe
pustie
##ign
##rându
detin
stăpânire
sorti
pros
transl
cerute
secției
felicit
comprimat
Mr
temperaturii
Crimeea
cumpărați
responsabilități
întărit
magneziu
execuția
Creampie
salută
acestă
barcă
Frec
Beach
##sau
sucurs
încruci
absurd
îngrijorare
acoperișul
AGERPRES
Sute
Supre
informatiile
Planului
##ots
##reasfin
posedă
vitezei
Rezolu
capod
158
Secuiesc
sapta
Securitatea
tricol
vitale
##lile
întrebu
aseman
deprin
Bursa
bătăi
have
##cm
parteneriate
##sională
portal
curiozitate
prostii
pensionari
aparatele
infi
ginec
ascultați
dezactiv
paralele
editori
atentia
School
defa
ador
clim
preocupare
Întâlnirea
Metoda
1958
hel
tipului
peti
disciplina
##inului
placere
Standard
Circul
Grinde
poses
ron
ino
mecanismele
fenol
zboară
169
Arhanghel
kit
reprezentă
##lock
blânde
argumentele
Ankara
##remia
Brâncuși
##preasfin
##jaculare
legion
strecu
culmea
întâmpinat
antioxid
spunându
##CLUSIV
##tabilă
ocazional
inhib
##lova
ște
geniu
vorbele
solutie
137
favorabilă
info
Forțele
dispozitivului
plimba
dispusă
tehnico
pompierii
##metic
acesti
împotri
jung
vâ
vizuală
Oblig
șomaj
##mescu
pomeni
nele
profesiei
##bank
inspirate
comenzile
Ile
operațiunea
Speciale
jucătoare
expul
somnului
Medgi
##furt
împart
##asea
Advent
##UA
trecea
dornici
rutină
adune
##allen
##șcu
afirmații
sovietică
groaznic
Jac
pauza
britanici
vamp
Brânco
Tema
##vocă
Vatra
simtit
promisiuni
##camp
Leton
informatică
ANI
ascundă
decent
##iana
blând
urmărească
adunate
215
##vră
remarcabile
îndul
##vedere
unicul
impresionante
adevarata
orientarea
diagnosticul
îndrumarea
##ZE
întrebam
Rud
Voronin
precise
##enix
latin
HG
transmitere
desktop
acomp
slăbiciune
Sperăm
prevedea
lacrimile
frage
##ally
computerul
prompt
polonez
șuru
##pool
Erotic
abanos
Clujului
îndepărtează
atribuirea
aug
respirația
înghes
Bulevardul
rah
best
ferate
rî
Babeș
##ranților
substanțial
Kevin
neschim
##sar
##mens
ung
vid
Primului
##găm
rulează
Salonul
împiedicat
arie
insecte
observație
Clubului
Travel
dioxid
mărturisește
încălzi
blocarea
forfe
referendumul
##ograful
gesturi
##ensibil
perfuz
filmate
IR
Pante
ilustra
regal
păreri
Lor
Bianca
Sibiului
planificarea
Ambasadorul
139
Zagreb
autoarea
cabinetul
terminal
##ofen
Work
stanga
urmei
sase
nei
Roc
deșert
inexi
marfa
##YP
împrumutat
faptei
întrebe
cursurilor
spul
ascultare
Orchestra
Edi
##fig
oasele
Kog
miroase
preotului
protag
cafenea
elimine
##țiunile
montaj
călătoriei
sedinta
mã
##lari
##rogen
îngerii
alătură
##izz
întocmai
##geria
Culoare
pană
compatibil
##arga
##ump
Credem
maternă
lucreaza
parin
Sexuală
suede
aplicației
Arhiva
Download
criteriu
distribuit
ALE
Hâr
low
File
Cercetătorii
##ențe
locuitor
derulate
bolșe
dându
cunoște
Grindeanu
vasul
Tână
Engle
##tianu
1966
forțată
Inițiativa
moderată
SS
##parea
rezolvare
Popovici
detaliată
pădurile
austrie
tematice
1900
atropurpurea
condamnare
##ternă
psihologie
contribuțiile
Ambul
Rov
creativitate
cărnii
reformelor
sămân
golul
selecțion
Meta
rămăși
contur
rezervate
##tata
mega
nevastă
abordează
convocat
codi
Varșovia
Not
DOMN
##ievo
îndeplinirii
preponderent
##PG
font
subsi
Apol
##sson
procedat
Dete
Dumnezeului
consecutive
deform
boabe
verificați
oct
Categorii
Nicio
##raznic
braș
amuzante
imprima
expon
Europă
suspecți
Dick
Francisco
păsările
##carui
Scand
vez
ruc
prietenului
timpurie
aplicabil
bătălia
băga
##De
hărț
##oke
planete
gasesti
investească
melea
variații
halu
impozitelor
asuma
pisică
campioană
od
detri
sarcinilor
fosf
##RIC
organismelor
reproducere
retin
jucătorul
##cară
Zeel
GD
curajos
cala
regăsi
##ntilor
##duceți
Dimpotrivă
miracol
rever
juriului
Leo
Adorm
scadă
inimi
portofel
##cho
transfera
semnează
pretenții
adăugă
semestru
##aje
Steven
folosita
atribuite
##derile
Pho
##ivul
scui
împinge
sotia
murdă
răce
acumulat
Ine
Sovietică
MS
##menilor
lucrătorii
Turismului
Mără
moștenit
glorie
##sind
confirmată
obținem
Mina
temn
Iuliu
Românești
prelucrării
curand
153
make
reflecta
academice
Pia
##bian
laol
maxima
PVC
134
Diver
nepotul
Mica
sucul
aparținut
Sighi
Rusu
dulcea
împărțite
congres
Pretul
vizavi
feb
lână
zisă
împlinește
absolvire
investiția
Villa
##resh
##nite
Schimbarea
micș
deget
frecventă
calul
Diacon
Clădirea
cercul
SPEC
zburat
ținte
incur
confuz
Mario
inspecție
Ghidul
Stic
optimis
dansul
Diferența
pin
omologare
profesoară
Lungu
Active
propunerii
Proiectului
##iasca
elegantă
filiala
salutat
licenți
111
montane
Pierre
intui
Controlul
întrebăm
##GE
antiin
consumatorului
sosire
amănun
chinezi
promot
împlinesc
panou
bem
Actul
majorat
porunca
producătoare
##ENI
barie
urgenta
razele
MAE
probelor
Daily
intensitatea
locuia
frontierei
##neanu
televiziunea
##tiilor
##dict
coastă
buzunare
MEDIA
Run
lemnul
formule
larga
cămă
instanțele
accesibilă
functioneaza
evoc
actualitate
##lavia
respectivele
sălbatic
propagandă
izolare
Beijing
tipi
schimburi
Teologie
conden
Radi
##grame
Mand
##uss
adunare
terță
platformei
##usc
Tânăr
repararea
##stelor
##ateur
Forumul
implementate
Cannes
neur
gravide
Sărbători
1848
tehnicile
lipsea
accidentat
tendințele
arbori
Class
montarea
parlamentului
exager
echiv
cacao
favoare
Anime
licența
obțineți
jurnaliștilor
vastă
cerceta
preturi
##chis
ornament
Moscovei
Înaltpreasfin
##ked
tăiate
##icultură
GAL
selecția
Pornstar
naviga
flăcări
Arie
moș
copilăria
##oasele
figură
Billy
curățarea
##alău
##rologie
Chei
ingredient
apen
Regia
tîr
răstig
Coș
Științi
îmbu
Eroilor
duhovnicești
omorâ
1914
PCRM
anxietate
distrezi
irig
Combate
Gog
uimit
asocierea
rușii
Excel
sistematic
alăture
##sant
binecuvântare
##oge
meritat
reformele
puținele
descomp
nemulțumiți
păian
furnizare
facilitarea
braț
Eurovision
revoltă
Destul
răului
Condițiile
##mian
moștenirea
Beat
dile
pensiile
integrantă
adeseori
finanțe
situatie
Anasta
etnie
igienă
ofertelor
##tes
##ranul
asiatic
smânt
Arsenie
întocmirea
Sac
##ruș
sugere
izbă
Ryan
##onibil
contribuind
tulburare
protectie
Patri
legendă
apreciată
##ptării
egalitatea
percepția
##chetele
##ango
vroia
tiga
##zită
dureroase
culorilor
șasea
##sted
constatate
Groza
dentare
sărace
apreciez
jaf
inginerie
retail
încărcate
undă
Tig
##cătoarea
răsc
Fiica
Industria
Arhe
mândră
precipitații
Trase
așezate
Cantemir
mască
Măn
anom
bărbă
##ȘTI
netă
Grupa
menită
termenele
##șeu
Adăug
baltă
descriu
valorificarea
159
Associ
resping
informatic
construiesc
deficiențe
Congresului
pățit
beneficiu
Justin
mulțume
Domin
depunerii
tragic
cipri
coeziune
achita
fructelor
devast
binecunos
îndelun
lift
susținând
eliminată
diesel
imediata
subterane
obligate
cotidianul
Mii
reun
aprox
Fabrica
Malta
male
călătorit
actualizare
Costin
prietenia
Mergem
măsurii
bucăt
##wagen
role
##uto
sfâ
eroul
Finan
exagerat
accesarea
Past
##rîn
##seni
mafi
##weet
crud
ramuri
Efectul
##speare
filmare
toarnă
NASA
##iteze
regale
Arun
grăbit
intrând
##mari
diametrul
##ILI
amânat
supremă
rusesc
formații
profesionalism
semnături
ruș
copia
antrenamente
##fix
gâtului
sfinților
inspirată
##ratura
oprești
Claudia
Cură
derogare
MW
transportate
##untarii
turismul
Aceeași
Râul
transmisie
sirop
psihică
Vala
salub
SAU
concentreze
muzeului
prepararea
##măm
##vesc
desemnarea
interog
apucă
##inice
##andru
sindromul
LEGEA
Doctorul
##opat
Întrebat
##ciunii
HR
contemp
Hele
Găr
regală
medalia
omen
##opi
Profesor
estetică
ceaiul
scrierea
sărbătorile
##ferică
detrimentul
Bătă
căilor
șose
oportunitățile
tablouri
punte
rapida
Macedoniei
încăpere
transfrontaliere
Făgăraș
new
constructii
deșer
valută
##ograp
adâncă
##enele
##letter
omenesc
Privind
depozitarea
petroliere
achizițiile
indiviz
Romei
distrug
##tish
HTC
circumscrip
murdare
virtuale
diversitate
vrăjitoare
guvernarea
punctelor
imense
incearca
##mida
licențe
London
##isie
simbolic
varză
Atâta
Atlantic
firească
##BB
Produs
mutarea
înghiți
EXCLUSIV
Maia
Matrimonială
constituite
Frumuse
zăpada
răsturnat
Holocau
casatori
Cavale
Ofi
##olitic
delegație
rămîne
fostă
##ptice
judetului
surprinzătoare
##aniu
Ore
plângă
Țăr
Lună
aliat
FL
simțul
adia
##ghează
salvează
pieselor
Băile
ignorat
furnizorilor
ÎNT
1962
PET
intole
onora
concluzionat
dividen
pomenit
tăie
contraval
minister
Card
IC
întrun
tăia
conformității
permisă
Petroșani
capetele
externi
Prietenii
descurcat
descoperiri
angajeze
Patrick
canalele
impusă
tarii
întâlnești
facilitează
gimnastică
superbă
internetului
complicații
voinței
ebra
ceremonie
aflam
moldovean
Mures
preventive
înființare
discutate
Banatului
Light
etică
let
poluare
tăl
Mariei
suportat
##IND
##sturi
Muș
Turnu
parlamentarii
reacționează
instalațiile
livrat
Consult
diacon
tramvai
##rity
completată
vreunul
Mla
##durilor
evaziune
haos
##inti
performanței
Eliade
##mad
Moment
instrumentul
##zino
premiere
##gurile
durabil
impozitare
introducă
macedone
tăiere
luptele
distribuirea
Hoteluri
##durii
##lară
instanțe
conectate
Inn
cenzură
adaugi
Ig
Satan
vedeta
Basescu
iPad
călătoresc
filmule
suscepti
străbăt
salariaților
relatat
posturilor
etnic
aga
Jupiter
cântecul
sinteti
seră
greutăți
Flut
reta
##umite
abe
farmec
prințul
romanii
Bucharest
##cială
Împărăția
presiunii
Sine
diaspora
carb
blochează
conecta
##lez
aruncate
navigație
mentală
informeze
##ificat
influe
religiei
##DL
dormitoare
tuns
ameliorarea
gimnazi
potabilă
partenerului
simpozi
Network
tipar
ajutoarele
antici
##appy
Ass
UI
Coali
coloane
Companiei
Hub
##UD
laboratoare
aceast
orășel
dezavantaj
Basarab
capacitățile
Mog
factorul
aniversarea
citite
chimi
##putern
farmecul
dusă
Subtit
Ax
##dela
ecolog
licitația
stiut
atitudini
întâmplări
finaliza
##catul
poeziei
plumb
Clipuri
grupele
costisitoare
păstrați
incredibilă
îndemnat
Procurorul
##vită
exil
claritate
inedită
Estonia
impozitele
##inată
continutul
aratat
##dex
contribuției
hepatice
Următoarea
imobiliar
încheiere
forta
Thailanda
1961
Încercați
paza
componentelor
gog
vechii
pregătirii
arteriale
graniță
aprinde
mediterane
îndeplinire
înarm
justific
Managementul
factură
păreau
UM
##anat
voastra
vîn
Croației
iert
##ctiile
Senatul
pahare
Ardeal
cora
talentați
Încăl
săvârșirii
reproduce
perseve
Ierarh
Cari
clientilor
deținuți
##ografe
cămașă
bai
escala
spitalele
##ștină
cădere
speciala
formelor
##șteptat
verbale
producere
imposibilitatea
citind
fâ
FRF
Celelalte
idol
așteptând
viitoarele
romanesc
șomajului
protestat
folosindu
Law
tragere
pensia
ion
hibri
neînce
##zati
naiv
așteptate
neîntre
stăp
alimentarea
tablă
delicată
magică
Eveniment
garde
insule
##ralian
##ermane
promovate
rostul
comunism
creării
tronul
spatiul
AUTORI
cincilea
Shakespeare
restaurare
Anului
personajelor
candidatura
stațiune
castelul
stiluri
prioritare
Cântă
gradina
consumator
procentuale
citirea
##uca
dosarelor
Dre
##sso
Interviu
1963
posteri
șefa
șosele
decone
ziduri
cinst
practicat
anchete
Oliv
atelierul
margini
domni
instantaneu
etichetă
Războiului
##clat
rămâneți
##zle
CT
##tariatul
##ark
portalul
întreruperea
##ofil
licee
Nan
marine
asociațiilor
Rodica
Nen
croat
derulare
ridicata
Gândește
raze
rigid
Costel
gunoaie
studieze
##ibet
Vestea
Doug
320
##ak
eman
litoral
##pete
##arei
transferate
tranzacțiile
turnul
##țeanul
renunți
recenzie
bătrână
ASC
lut
Administrarea
vinului
1957
democratică
ridicare
Ferici
vesel
comercializate
traversează
Rețeaua
##lești
react
##km
PLDM
arderea
instituțional
fișierului
Tîr
##vac
Canta
subteran
alergare
aluat
specificațiile
nebuni
Politehnica
seism
artiștilor
Camerele
Achizi
Cone
Puz
Mira
porti
Nicula
##lef
Inov
definiția
locotenent
noțiunea
CAL
Sluj
oprirea
Medgidia
previne
prestate
prevăd
1953
##apore
##news
script
indiciu
erotic
generoz
elicopter
Colo
Pasc
cadavrul
profitat
pictat
##nicie
Filiala
înșe
##covi
castigat
icoana
Ay
egi
vada
așeza
prietenos
Munca
genetică
capacităților
inculpatului
coord
##ms
##ature
afirmație
Adaugă
caros
consultat
Israelului
reluarea
repeti
Strategiei
##ár
puternica
##țind
oglinda
revoluția
Doru
##gasse
ME
1942
minunata
##gile
indispensa
164
muntelui
Antrenorul
întunericul
fotografi
îmbrăcați
admiterea
rezum
gazon
rule
##ineze
anorm
albastre
dera
##icea
favorizează
româno
simplul
tavă
##borarea
albume
ambelor
Asigură
voturile
misterios
roade
Participarea
pașaport
axa
##ințării
deale
reuse
coaj
polie
##omun
acordării
##39
notat
familiale
revendic
Cernavo
inspiră
167
Fiți
învățarea
evidențiază
Hall
câstig
parametrii
adeverin
Spunea
Israelul
Relig
filosofie
optat
cardiovasculare
##oso
priorități
Hotar
miniștrii
Paradis
Subst
##oon
##metre
turnat
Plata
God
justifica
Frate
Fanta
miza
Beck
ignora
mecanică
spontan
scenarii
Nota
##utiei
codului
##eamănă
comparat
sabie
##lavie
finlande
Game
stinge
adversar
##miți
capacități
complexitatea
specificul
Presedintele
lipit
forestier
organic
166
directori
prăbuși
posibila
Lord
căpătat
##așul
apărat
Brun
Sic
federal
conducători
reținute
Maior
##lace
afecteze
##34
dual
Vik
##tere
chirie
##zl
perfor
parere
mântuire
iluminare
rușin
##zzi
Vicepreședin
Nel
Schw
IA
dispută
##ușor
pornstar
stejar
descoperiți
carbohid
discer
repara
visează
Dumneavoastră
Carei
##ELOR
luci
divul
##uroasă
Wolf
##aret
imprimare
vegetație
##xon
Insulele
dușmani
duse
magice
Tirasp
##sky
baruri
adulții
Road
Digital
conștientizare
pulveri
Flor
vizând
Lew
eșecul
VE
##anică
Catal
flan
East
convenționale
muie
Lungi
##Po
Ted
jucărie
depășirea
arsuri
asista
departamentului
##linirea
##itând
Numarul
șarpe
157
sânul
secu
##iac
##menclat
măce
ajustarea
Kle
metodelor
priceput
paie
leasing
arc
PRIV
caracterului
##nxx
slabi
ecrane
răbdarea
sparge
##31
întocme
##arius
supărată
Comple
formeze
Împăratul
Proces
cladi
speciali
1952
înșelă
##oterapia
aplicabilă
Studenților
Bucurați
embri
autovehiculelor
musulmani
##atici
politicienilor
PH
fuzi
##otip
iubească
cititorul
Gib
miri
OSCE
europen
pumn
metil
know
publicare
ispă
imigranți
precizând
cicat
Kaza
Parohia
ph
##ulară
Bio
intercone
clienti
șantier
Monitori
Vorbesc
fanilor
pictor
tehnologiile
RF
##licat
actualizată
1936
goi
decon
curentul
cav
ideii
întreprinderea
altui
contribuțiilor
francezii
pescuitului
CAP
pierderii
Iunie
elibereze
provocarea
diferenta
Fix
##rau
rulare
Cert
coajă
apelează
cantitățile
##anc
turcă
Silvia
bancn
##uioc
##acul
galbene
Sportului
Băiat
Junior
decup
actrița
creaturi
abuziv
TREBU
Salva
sfântul
medalie
producții
simptomelor
stațiile
365
premiat
##oian
Bugetul
##rurgie
persecu
Software
zamb
vam
încasat
dezinfect
prejudecă
călugări
Pere
Români
##herine
adăugarea
confortabilă
##roa
##heim
Partene
pămînt
##icol
expunerii
suprafeței
parului
sălile
Baba
SUV
Stephen
țigară
delicioase
separă
acurate
zgomotul
implor
Proiecte
întunecată
capsule
alătura
Altern
Alo
nemer
##roi
operele
conceptului
spectaculoasă
Volkswagen
calatori
farmacie
depărtare
redire
tranny
##cțională
Lili
semințele
elu
iaurt
ierta
mir
Sas
Activitățile
Ajută
Cabine
Nistru
RAT
Sime
cuptorul
așează
Recunosc
magia
Comparti
inaccep
Echipe
##mena
ecumen
Oficialii
privească
sinteză
coaf
facultății
Box
Tommy
osta
##sse
fã
##orf
flagra
##cks
instalată
##iman
camerelor
unanimitate
civilizației
muncească
scumpă
##renal
##ciuni
credeau
##ghie
Culturală
folie
##dinam
declarațiilor
Valorile
medicamentul
##stelului
întreținut
zidurile
Deza
trăsături
dispozitivelor
Forma
specializare
##ohi
premiului
implant
relevanță
Under
mesele
prelungită
Hotărâre
roti
încarce
##diți
Limite
concepută
popoarele
repa
duri
Patron
##liști
zgârie
##uiala
drape
cunostin
subiectului
neve
Brătianu
blocate
Ras
ES
Sălaj
anumiți
rotundă
bis
650
comit
##sterea
##iva
așteptau
șoseaua
##ates
##ĂRI
prepară
inflamat
bicic
creme
grupării
Luceaf
ER
protector
ambarcați
luminile
transparența
revă
Cauza
Bârlad
groase
pieptul
Tonkin
laolaltă
##aliză
##cator
ambalaje
Lăpuș
autorizația
1937
Cercetării
##als
consumate
veac
Așteaptă
lân
capcană
îndatori
corespondență
atribuie
conduită
about
miel
##udo
##ANU
##ativitatea
recunoștință
CEDO
neașteptat
distincție
circumstanțele
gad
mancare
rugați
Perfect
hit
Job
volei
întărește
predarea
cauzează
eliberată
Puș
##DP
Andy
muzeul
cunoștea
Explic
Protocolul
##bină
Fis
murdar
gardero
etichetat
întâlnirile
Jer
Romeo
nesigur
instalație
Bale
ka
solicitată
prestigiu
Momentul
conduci
spațiale
vedetă
Colecția
Tratatului
##otputern
romi
manifestările
rezistenta
What
mătase
##giană
proli
franco
construim
rezon
device
confund
subtitrat
##olan
dinamica
publicitare
finalizată
##onamentul
impla
demisionat
##memb
Băiatul
BL
Rădăuți
dorinta
livra
##hard
EURO
Kal
Nicoleta
ridicol
muzicieni
arhiva
străd
Marelui
închidă
intimă
Imaginile
Denumirea
flexibilitate
Telekom
Căt
multifun
maestrul
Egiptului
##onarii
anunțe
##St
vacanțe
carosabil
standardul
unilate
minciuna
Off
##spa
Asemenea
tradiției
rareori
##vion
antrenat
compat
##bourg
##UZ
alarma
Stur
experților
bombard
pensiune
bagi
##vodari
căpș
cântăre
Izvor
pup
păzit
nerambursabile
##imile
Digi24
sensuri
califică
Primărie
stăpânul
reușești
##yai
gospodării
##kyo
SH
##MAG
##guța
ospital
##hir
##tagon
Acce
tură
liturg
farmaceutice
break
Clo
##teniei
ostil
Vară
Mașină
##sulă
romantică
Persona
aduși
Afric
totii
Cado
îngădu
preliminare
infracțional
medicinale
crestin
soți
##mezi
##keri
Opt
Young
nedetermin
astepta
transporturi
Brexit
Margareta
##usului
1893
încercările
Petrom
inițiată
brute
funcționarii
1959
castra
alimentația
##dona
Arab
răzbunare
permițând
Omule
##ocus
1943
Scriptură
proști
excepțională
comision
pozitia
Ștefănescu
imaginez
metalic
##ergent
binecuvântat
mireasă
Bic
curiozitatea
intoarce
Florida
Pasa
sărbătorește
##ines
nepotri
MEDIC
slujbe
duel
ceresc
vizualizări
mentale
unghiile
auriu
testelor
restitu
Peru
îmbracă
##știe
țesă
Doza
sexului
expresii
##selea
băiețel
##ălniceanu
premiilor
împărăția
prefectul
Cai
liberali
Oricât
caracterizat
roși
mention
SEO
pastă
Preasfințitul
Got
1955
Născut
##sent
Spiri
Ocna
Ret
Regală
cuprindă
Chim
Șapte
datorată
nemaip
Islanda
Stim
##EE
Dorn
prețios
Ico
contraf
omorî
încurajarea
Grigorie
apăr
italieni
Vodafone
tranzacție
Biserici
cultivarea
Sighișoara
Conferinței
jurispru
clasamentului
ingeni
fuga
multora
pagube
##oaci
Șase
SR
sarea
Culoarea
rotunj
##uve
vici
creator
garaj
diale
rama
##anta
##țiunii
zme
aprinse
timid
##căra
eroilor
Gheorghiu
##ssen
influențe
deschizi
culin
geantă
explici
Arabia
WiFi
curricul
usoara
judecătorească
iude
mireasa
filmelor
preco
convenabil
planificat
##iant
realități
##mante
A3
postate
generalului
##mark
Cuvintele
maritim
costumul
Bărbații
mah
##pezi
##uay
fraudă
Medical
injecție
Jiului
Comisarul
sfinții
Pasul
invocat
Oaspe
##niei
inser
##ury
Celui
nominalizat
exercițiului
postarea
potențialului
depozitele
##UBL
sotul
Golf
Măsura
Autostrada
ficatului
înspăimânt
adulților
scoasă
biologic
Sz
Uleiul
gazele
surp
1200
Acel
indicele
##inson
dobândite
creând
biblic
Consumul
##smus
Mega
Tag
Phoenix
ultimilor
Som
seminar
gară
schele
consacrat
##isen
Veterin
runde
otom
iartă
crescând
detașa
deport
Mün
tânărului
Paș
chestiile
Adica
joasă
Mureșan
Tera
high
Maco
over
înalți
multum
Ander
210
plăcu
##ARĂ
Jum
##DC
coloanei
alocuri
programa
##fant
candida
Cunos
Jake
VIP
rădăcină
fila
randul
necesarul
optimizarea
pădurilor
publicația
înființate
##țineți
imobiliară
Tulburări
încălcări
bagaje
achitarea
Actualitate
##irilor
obraz
Saul
Gavri
Financiar
Invest
veșnice
vehiculul
##jor
dublat
##sează
##vența
Similar
sufrage
gresit
aproba
parcurge
Pompierii
Sînt
stralu
Kogălniceanu
directoare
pantalonii
##chie
Singapore
atace
înmormântare
##asca
Corinteni
kW
##inu
farfurie
anchet
urechea
cofinan
copi
Virginia
Lipe
Comentarii
otra
##zească
Guar
Ieși
grozavă
plasmatice
##oianu
direcțiile
Cruce
asalt
##arth
ineg
##sil
Let
Pron
părăsesc
Câmpia
bugetele
accesoriu
aleargă
##mut
gasiti
mant
Dam
sting
Aten
Robu
Harta
strălucire
orgol
Rand
##oleon
dureze
devenise
bloguri
plouă
rã
mărcii
principalelor
demersul
reprezentarea
stelele
Dealul
locuințele
navigare
totala
celal
containe
raionului
Fat
tranzacțiilor
diversele
gurii
masivă
##conșt
Modele
obliga
selecta
vizibilitate
moza
condamnarea
pang
##38
plimb
epar
înceta
secul
zdrobit
Copil
Liderii
Mănăstirii
##cționați
înlocuită
pompe
apara
##opăr
licitații
musulm
electromag
asociază
înjunghi
scrisul
testate
Însuși
înzest
aștern
##alizăm
seriozitate
reap
decurg
##WS
Principala
inchei
vraj
necesari
realizările
Expres
Catolică
multimedia
îngrozitor
ratele
gospodărie
aduceți
hobby
Techn
exteriorul
evaluează
chirurgie
coc
##vey
genetice
urină
telecomunicații
cutanate
##țierea
ciment
rezoluția
prăjituri
răcori
Cojoc
174
cicl
Dubai
desemnată
sprijinului
##bările
condiționată
##cium
anilină
plina
omologul
intelege
colecta
răpit
diploma
Ric
ordinară
Slă
Zim
expertiza
groapă
Baie
tinut
aflându
##AG
formulare
pneum
cerebrale
##PM
calculatorului
Og
plasă
gardă
reputația
democrații
Hardcore
fericirii
constatare
##entele
Martorii
Relația
deplasează
Express
considerând
activele
dati
dramaturg
##arbe
Ultra
iubito
Stanciu
împarte
##riate
protestele
personajului
mărturii
Recon
plasarea
anunta
##sbiană
sacrificiu
Room
Județului
##est
Alți
culturile
Efectele
Deta
##ffer
##anesti
burghe
oboseala
achite
asociațiile
exercitării
cărămidă
Câteodată
înlocuite
##ațiu
anatom
precauție
menținere
##bului
calculată
băiete
Diavol
##eto
second
observăm
umerii
Letonia
Bolyai
azot
însumi
fluvi
geopolit
##roll
DR
Bucă
erg
decern
dri
plasează
absorbție
##urs
interpretate
interactive
revenim
Anunțul
instituie
excluderea
1933
##rob
sacru
exactitate
așezată
tech
nocive
Sr
mențiunea
facturi
dotată
##nțe
terestre
încântați
vai
roage
Trupa
Nich
Garda
Moldovan
##Pe
anticipat
ponderea
UT
incerca
sile
##UNE
sesizarea
sărăcia
formei
tribunalul
săr
CRI
creampie
##oro
umblă
incerc
##fred
guvernării
cluje
Regională
replici
##ales
privați
maraton
Problemele
Boston
elită
nuanță
Romano
##ERA
citire
etichete
##denii
zgu
doreau
##dători
dezgust
Emo
##vizibile
renumit
uzate
bariere
MT
dependent
metabolismul
Apocalipsa
extindă
Confede
ipoteza
fotografiei
Presă
împiedice
bombe
folositoare
##RIE
organizatorilor
religii
proprietarului
vitam
cardiac
Greu
##nac
Timotei
medicamentului
bagajele
fixare
așeză
Vorbește
Familiei
Magazine
trucuri
permisul
lovită
Oraș
exceptia
Modificări
conflictelor
intervin
Petersburg
Uitați
##bas
Leu
progresele
Resp
compune
##osu
Aaron
bunătatea
Cânte
coace
știrea
invatat
##cerii
##orea
##oper
jucate
învech
autorizații
colțurile
croazie
dreptunghi
absolvenții
Franceză
mesajului
felii
Davis
##șanu
endo
cuceri
Cape
compatibile
Deciziei
concentrație
recenzii
ANRE
intervenției
funcționar
##alty
##fară
remarcabilă
inteleg
brandului
vărsat
intors
dovezile
ecle
granițelor
##64
Bobby
##gli
Criș
picturi
echipajul
baut
Rece
nădejde
egida
turist
Nas
##situl
medali
1954
Oz
dădeau
ochiului
legitime
împuternic
dedes
masac
Caracteristici
Așe
greață
grupări
replica
vecinătate
##uroase
medievale
incredibile
infarct
Anth
crem
Prietenul
Arist
împrejurări
inoxida
Extin
##CCJ
cerând
munților
Desene
clientii
modelelor
Gau
desăvâr
creativă
Babil
necă
stresului
campioana
##arcare
proxim
##mările
##cutul
tehnologică
monumentelor
orn
orale
afirmând
INFOR
Vro
urbanism
##holm
Teritorial
praj
asociația
##ocabul
update
pasiv
ficțiune
154
patruzeci
Educația
hoți
HOTĂR
Cori
##ME
calculate
pamant
pedepse
omagiu
infecți
intraven
exotice
căt
avuse
Hidro
rase
păstori
importul
evoluții
tuse
Taylor
Depinde
Dru
Fried
tel
zborului
caii
##own
remune
Antrepren
inelul
##Sport
potrivita
Totusi
monitoriza
Normal
substitu
controleze
Popular
##ulești
fluid
bure
Ati
##df
intervie
ideala
autorilor
dezbaterii
compres
Hab
Player
întemeiat
Ena
mărunt
facilitățile
întocmite
sufere
Ath
Asociatia
Cetățenii
##vier
localnicii
Descrierea
Rama
DECI
neîncre
descentr
ard
adrese
Puzzle
petreci
forestiere
##insula
##osh
delicios
Coman
Nept
trezești
##ocine
arbitru
meditație
întunecat
Incen
Luci
prevazute
scenei
cativa
Eforie
TREBUIE
răspândirea
amplasată
##ERT
Teodorovici
abuzuri
animație
trăia
Bren
psoria
acordurilor
Petra
mediile
Amândoi
urmărind
câștiguri
Peștera
##țar
indo
Simpt
surprinsă
reținuți
bunici
extrase
Mak
Jerry
tăcerea
poc
marș
vârstele
picat
aruncați
furia
pussy
##șelor
Pay
Persoană
subvenții
acceptăm
județeană
doresti
##osta
print
Speram
remis
lăudat
hei
chimie
##dește
românește
istorici
controalelor
preface
luptăm
îmbrăți
resort
strâng
măsurarea
hemat
conexiuni
mov
importate
##sad
spațială
rasp
Niculescu
##ctate
pedepsit
derivă
angajarea
Revenind
afirmația
pungă
Homosexual
interacțiune
tratare
Înc
Filosof
manifeste
##dle
aglomerat
prefe
darurile
compartiment
seniori
poștală
pseud
imple
potențiale
știai
Zaharia
conectare
perspectivele
Aprilie
solicitantului
angajamentele
parintii
prelungire
##antrop
Jason
ira
##matici
galerii
Armen
Erasmus
amendamente
sediului
angajatorul
incendiilor
revoluției
cumplit
constituită
##dad
adjude
Vama
vorbeste
jertfă
##dianul
isla
definesc
##lov
Cambridge
retea
AK
neper
înlăturarea
pasagerilor
legende
predominant
salvă
##ré
animalul
##hed
Metod
volanul
Ierusalimului
North
acred
uniți
investiției
##itz
talente
Premiile
onc
musculară
dorul
Căpitanul
Mirela
Wel
păgân
șmeche
concentrația
actualului
Dani
reden
abstra
Crețu
Economie
aspru
nesfârșit
Sm
numitul
Tiraspol
elaborează
competitive
arabă
edifici
ntre
##derul
încredințat
Rafa
Adoptat
menaje
probei
##finit
fermierii
aproxim
ocupați
##reaba
locuințelor
tipărit
Personalul
##gene
menaj
Regale
stimulare
sclavi
##amp
##titul
spray
Trece
beneficiarul
ucrainean
##zeaza
apropo
Organizatorii
popa
artizan
municipale
##ionale
notificarea
##ătură
nimerit
bunătate
instituționale
capacul
kosov
##hl
Isaac
pronunță
nime
înfrângere
Frankfurt
treimi
terapeutic
declanșarea
##unos
împărtășit
BCR
relevă
##ECT
revig
situata
scad
##orale
steagul
echipamentului
mântuirii
Ambasadei
induce
perpe
Pele
complementare
prizonieri
peștele
detoxif
##enții
Timișoarei
buchet
##55
intelectuali
Europeana
împărțită
##xia
tematică
inventa
Turneul
Kra
concedie
##orpion
raspunde
întunecate
greș
nordică
profesia
colonelul
Gloria
Dream
crimele
##NAL
clopot
Ajutor
Cameră
##lări
coaliție
mobila
Început
COMUN
##tătorul
inovație
vizitate
Tokyo
Vai
căsătoriți
avize
Carlos
vaselor
colind
doctore
obtinut
autohtone
prover
Protop
comercia
hac
was
Reducerea
deșeurile
speciilor
Interesant
##sip
Roland
pã
adapteze
Tiberiu
zom
Agro
felicitări
Natural
înregistrările
magistraților
##FC
Buce
atacului
modificării
haz
##uble
bucurii
rămași
Românesc
consultări
Generalul
mănăstiri
Sărbătoarea
angajatori
Costul
scheme
blocată
##ords
##hr
finalizare
##wich
##idare
Flirt
bebelușul
FIFA
casino
##larul
atacurilor
muncitor
##dieni
furate
frânare
Rareș
##omele
550
2021
##pens
eroii
PAS
gusturile
bombar
începeți
îngri
sete
acri
##easa
##inați
intervent
îmbrăcată
accentuat
suta
vertical
price
##fact
masei
descope
Nep
Bălan
mărturisesc
Trupul
dramatică
tarifelor
individului
ucenic
pacat
distribuie
##dentele
Ip
stăteau
##ook
greșeala
longitudine
zvonuri
săvârșite
certat
arom
##cheze
Gesti
popoarelor
întinse
1924
poruncile
coap
interpret
##coin
trădare
peisaje
bucate
mergeam
laude
audioviz
mA
vindecă
##NTA
ședințele
Saturn
tableta
tora
Cada
credințe
stagiu
biletelor
Năvodari
GA
cercuri
trimiteți
Senz
1925
Aste
Paula
demersuri
prevenirii
##ȘTE
închiși
Îmbunătăți
Gon
Lia
multitudine
Povești
eti
Platon
Franta
suspensie
Moc
##tărie
consume
Chestia
batjoc
violon
Electro
împrejurimi
Supremă
compasiune
altei
Sucevei
Suprafa
Ent
##alizările
resturi
antreprenor
drama
##deu
Veronica
conturilor
botezul
Abu
examinat
galbenă
##lines
ocupării
lipsiți
rezervele
##max
##IEI
Probleme
pica
solul
plafon
menirea
arist
##ticii
interpretează
situatii
monetare
Adobe
Permane
##țiere
HOTĂRÂ
##OA
00Replica
fantastică
veterinare
##bro
lanțuri
bilanț
animat
Cartier
Tatal
jal
expusă
##indic
structurat
comunicări
completate
simfon
Zece
solicitantul
înfăș
afirmațiile
stâncă
retroce
TOT
primarii
misiunile
##loane
##ptare
##rence
Laure
vocal
Astazi
dante
operati
analizele
trenuri
Bica
INS
Tehnică
##vilor
OMV
Roz
atacată
evită
##căl
##sper
mâinilor
hainelor
inad
Herman
Infe
recal
destră
fax
păstrare
lanseze
viziuni
Continu
##măna
păstrezi
Descoperă
IPS
laboratorul
aripile
Permite
Andrew
RCA
benefică
examene
sindrom
fume
##unesc
Cernavodă
tabele
entitățile
Food
Folosește
egalității
îndeajuns
chemarea
##nisajul
fructi
vecină
NC
##riez
proclam
compensat
observațiile
acționari
orientat
Remus
departament
redesc
##dești
căsăto
Macovei
peșteră
book
Cheile
##oniștii
compuși
iertarea
Dion
naturala
bage
completeze
perver
distinge
Judetean
Step
BT
##gesc
consemnat
##iren
Jazz
destui
accidentelor
Protecție
gandesc
Iurie
militarii
dansuri
Arhiepiscopul
încadrarea
##dana
transparente
educativ
Indone
##ople
prezerv
analizeze
alteori
Action
##sând
masterat
introducerii
rutina
rănită
intenții
Challen
subdi
îndepărta
iresponsa
neaparat
congreg
Susp
Studenții
subcut
Allah
bănești
ocupație
predea
săracă
părăsește
desființarea
Experții
tie
##inau
colaborează
ATP
trecuta
sterline
polig
bebeluș
##hin
seif
facturile
Fră
interbelică
##cuit
surorile
insuficient
Capul
##jos
Gui
##jd
pietrele
prinsă
civilizat
pistă
arbitraj
presupunem
autostrăzi
tii
distor
inițiere
convine
cetățenie
palatul
Medica
Claude
deschiderii
Animate
autorizați
sesizare
statisticile
Organizarea
Lang
Ode
câștigarea
milostiv
Muie
ajunse
singurii
renunțarea
##jut
băuturilor
rambursare
Căsători
##cking
solicitării
medioc
poduri
hart
##enha
##laru
senzor
deduce
morcov
Wikipedia
laptelui
Camelia
jurnalistul
Hotărârii
##kovic
##șare
plătim
determinare
black
performant
nelegi
cind
Ronal
carbur
pondere
soa
rezolvate
acidul
marginile
ham
compozitor
constănțeni
sint
incendiul
muncitorii
așteptată
petrolului
Temperatura
precisă
dobândă
schemă
tricouri
stabilității
abrogare
bomba
încun
curea
dramatice
Tarifele
menționa
inloc
Conne
luminoasă
originare
##illa
Puteti
##ândesc
casnic
exercițiile
Night
##doarea
fețele
Gazeta
dease
##derilor
soluțiilor
tratatului
Punct
rezistenței
mărfurile
dedu
recă
##uratom
Awards
##kini
transformată
cocktail
##uiat
creatoare
promisiune
cauciu
redres
Protocol
afisate
Zor
##itabilă
instig
330
fetițe
Alfa
##anice
coca
Mergi
prezidențial
ostat
Verificați
##șoare
Juan
ambient
păstrez
Miercurea
Ib
oaspeților
dorințelor
cetățenia
Nucle
obstru
Acțiunile
prezentați
camara
Familie
Călu
înn
##ptății
consilierilor
Africii
Alecs
limbajului
Euratom
Mauri
iubitori
##text
ajunga
încărcăt
îmbunătățirii
Gr
proprietăților
Taxa
operația
manichi
biblioteci
fezabilitate
LIVE
Nașterea
echivalente
panoul
bateria
Cerul
parametri
lacuri
eficienta
Traficul
rega
Îndră
codurile
PT
astă
screen
neputinci
Emma
anvergură
maine
##rona
##sată
galeria
Stăn
##licarea
planificate
Neptun
creion
generațiile
1935
statistic
##lementarea
##regi
Elizabeth
Cantacu
Fecioara
##VI
conduși
tămă
Poveste
dobândi
vascular
străvechi
depline
blind
stap
nedorite
dureroasă
##țã
ticălos
##Point
editorial
##ashion
Ghid
Pip
Capacitatea
tăcut
Sima
##tizare
anon
hibrid
căști
promisiunile
Iov
contractantă
COP
opțional
Bush
Itali
acumulare
Bapti
Jurispru
Kelly
condamnă
HC
Clark
Românie
Vital
Sab
creații
##ranții
ridici
făt
concesion
desăvârșit
mânia
transferului
pachetului
indign
Companiile
##orma
combina
##urăm
curții
țărani
Drumuri
TRAN
plângeri
##orez
contracep
Haw
jucatori
precoce
##ografiile
trecerii
sintetice
Formul
Conver
câinilor
acționar
ingineri
Ochii
specializarea
Islamic
transferuri
Vulcan
nutriție
imobilul
Zeelandă
recupereze
Seni
acceptare
omenească
spuna
infracțiunea
pixeli
supun
incidentul
Parcare
emisie
Tol
kur
Răzb
îngrijit
entuziasmul
Tei
1929
##ATU
##KA
cotidian
agit
##STRU
ucid
piciorului
##gericht
responsabilitățile
lăsându
conectarea
Contine
Umane
semnătură
Nistor
Island
##ctiei
ceașcă
bogăția
injectabilă
raportarea
Sistemului
explod
roata
guvernamentală
Colon
dețină
auxiliar
parerea
Charlot
amănunte
pH
trimestri
ucenicii
punctat
bucurați
televizorul
Efic
pli
proprietarilor
rugby
industrii
orizontală
manipularea
Cerem
fashi
vicle
repere
##icuță
orientate
pânte
creăm
Număr
sinist
cincizeci
coșul
Aver
##OARE
Situat
HCL
Întoarce
Olimpiada
protagon
hemoglo
Bow
Evre
FE
achizițiilor
adâncul
caracterizată
vizată
indicații
guvernământ
Tenis
amenințarea
inconștient
întâlnită
##more
creditare
desfă
repor
regăsit
Company
cumin
nesemn
anulare
Sfintele
cunoscu
##77
constip
curăța
Chișinăului
##pea
jurat
vânzător
baia
##ordine
Tw
##gant
economiile
Neagu
Boli
Hur
zar
pudră
începea
Politici
Soli
##RIA
hormoni
spove
poveștii
aeroportului
conflictele
Educat
##inici
calitativ
generali
##ERD
Surse
ofițerii
ziarele
guvernamental
##itabile
##auf
cântând
Bloom
UNI
selectarea
accelerat
indisp
colțuri
##lân
exage
rotunde
cabluri
iubite
##teanu
oaie
protestul
##tivele
încărcată
##uilding
fixarea
##leanu
##grade
side
fec
sinucis
defavorizate
clocot
dinților
civică
##STA
inaugurarea
traiect
puterilor
##uther
portocale
protop
marmură
dedesub
Cunosc
##XT
creare
îndoiesc
Vide
nov
comportamente
Alan
liniilor
Clientul
Benz
##șene
concura
Vizi
agitat
##ficăm
îndelungat
fantomă
compli
280
despart
angajate
##divers
frontal
dinoza
Stelei
##nton
irita
cică
Voicu
Napoleon
Închide
îngrijorați
113
transvers
Harris
dormea
Evangheliei
##scriere
ascultăm
##COM
aplicațiilor
osc
Ileana
existenta
Reuni
grădinițe
##STI
Construcția
aprobării
Mail
Oficiului
Apuseni
##ATI
dramă
semnalat
Pagină
mărirea
Nicușor
chineze
Syd
formațiuni
PUN
##lomer
##neasa
##utățile
magistrat
##lux
deteri
filialei
bisericilor
labiri
artile
Morgan
Următoarele
românul
pedepsește
găr
##ruse
odihna
greutății
gaura
Forței
migranți
Portul
preconizează
obținând
sw
relaxat
vopsit
Adolescent
accesoriile
neplăcut
Comunicare
urgentă
Coro
nemaipomen
legenda
Lunca
Bacalaureat
CUM
1951
##arl
tricoul
înru
feminina
intalnit
saci
Electric
Stirile
echivalentă
plenul
##cintă
criminale
plasament
Maestrul
bata
acute
Mențion
venită
treaptă
echilibrului
acuzare
strălucitor
##vata
##ated
povara
##ctar
votează
##căriile
filosofia
Premier
##zecea
##istii
balne
criminali
sinceritate
pregătitoare
bisc
sult
trădat
butoane
##stract
lama
##nan
GDPR
Pam
##îni
localităților
Pădurea
Telefon
##topeni
conten
Instituția
Folosirea
înno
reformei
arhiep
castiga
##Ce
Ardele
urmatorul
IB
##timi
arab
gul
##urului
confirmate
##omie
strâmb
If
autism
șefia
miscare
vaci
Prun
interacțiunea
contră
abso
##oide
Neuro
silicon
prescripție
Producția
Utilizați
##seală
predeces
bazinul
PREZENTUL
hop
performanțelor
calificată
artificii
contrabandă
Apărare
aproapele
rănile
realizata
##opau
Atle
Rețe
predau
chib
##bach
Franz
blat
civili
intermedia
pretex
vize
##zand
##ILIZ
renale
stăpâni
runda
Precum
##ugră
colaboratori
Romanul
Epar
imperfe
perf
##oasei
combinată
secundară
catolice
##atã
privatizare
##rară
portba
Boala
constante
Ceil
groaz
polen
razna
bați
proveniență
Kom
##denie
superfici
provocată
expozit
deputații
vacant
intermediar
protocolul
fenomenelor
enerva
##giene
Mug
înlocuiască
compuse
legați
funer
investitor
Condiții
înregistreze
urmașii
Valentina
BI
ped
oțet
##fest
scazut
aducea
templul
parțiale
iubitoare
încurajeze
##house
reporter
##oda
taină
München
Viață
rotund
ASA
iuda
acționarilor
vocabul
așezare
trunchi
Dragoste
check
retele
longe
##stinian
armonios
relatie
Știe
utilitate
întâmpinarea
evoluțiile
tîrziu
parinti
termini
monedei
medievală
pasagerii
cimitirul
rezolvată
peni
grasim
întinsă
suger
soiul
##lt
atingi
haină
modest
Theodor
comut
Oliver
TRA
subur
perpetu
premer
atî
reparat
Clinton
sam
frau
prefa
utilități
rezil
împing
Adina
Cantitatea
plictis
##iceanu
lăunt
Dura
juriul
Bau
pașapoarte
interna
carbu
##ture
utilizări
contravenționale
sema
actualei
baby
Romana
Teoria
plaf
Eddie
acelora
ferestrele
Decretul
Medicina
îmbunătățită
parteneriatul
LE
well
##juri
##mbul
Exa
##sell
Faptele
dezval
artista
GT
cardiacă
##rex
ajungeți
manuală
lumânări
observați
##orabilă
învățăturile
loterie
Lucia
locomo
##lească
omn
deshidrat
##fos
atestare
##stirii
Audit
viceprem
1923
oile
Aplicația
Comunist
Vlaicu
temelie
rugăciunii
iertat
Robin
aderării
##spod
reînno
Otopeni
categoriei
tati
Pachetul
enorme
ilustrat
SK
Macron
hărți
invitată
Salvați
căruci
recensământul
Răsă
paradig
înștiin
identic
PDM
teoretică
preocupări
Criza
infecțiilor
##RM
creezi
Scul
speță
##oney
Distri
decizional
începuse
Instanța
tap
întrebării
încheiată
clasificare
Vid
Miami
mobiliare
crezând
Austriei
Energia
##abile
ducând
jertfa
individul
admin
preciza
componență
incendiului
Ciuc
Amts
Buz
vanilie
Trip
eleganță
POL
##șean
Dna
Marco
misterul
hul
Căline
Cercetările
RSS
martorii
salvați
vorbesti
Gmb
naționala
Soroca
angajată
porcină
1907
inadec
sarbatori
rinich
discount
Stare
porcine
piscina
Restaurantul
lichidare
norma
##andre
Prezentarea
socoteală
tes
Carta
Amy
Aliment
Natalia
abrog
##izii
scriitoare
Amtsgericht
mizeria
Chile
accepți
Long
Wilson
Etichetat
strig
crează
ascunzi
răspunzi
atu
pasaj
închinare
seriale
disput
descurcă
Paravion
preoților
depozitul
FOR
realizăm
juriu
obo
certi
opriți
schimbate
retră
scule
rezistentă
##yan
Inspect
zidul
##etooth
fișa
sto
rafina
invin
nationale
avantajoase
respira
Vasil
motivația
union
##oniță
Client
toleranță
Skopie
lobby
emer
umani
capturat
Nichita
Cercetări
sinucidere
##ghan
Apostoli
audiat
##ICAT
slujit
parchet
121
buzunarul
MAR
succesive
##aps
270
palma
reglementată
Copenha
Py
superbe
fulger
aditiv
confirme
##ssa
multumim
directiva
concediat
APIA
##bla
inoxidabil
##untry
trăs
descurci
Larry
mans
Emi
învel
formularului
mearga
considerabilă
pescuitul
Bad
##tique
CYP
Ocuparea
##ration
puii
tir
gestionează
metalică
inteligenței
inculpat
sârbă
Disco
##orți
ușii
acap
furios
colaborări
hidratare
surprindere
Cumpă
numire
borcan
Masculin
Gun
romanilor
##urch
Toti
sina
Soros
neimp
aluatul
plecând
##dius
##oniu
revenire
pestici
coordonată
Părțile
varian
Leonard
termene
simbolurile
260
calori
procesarea
portarul
Latină
voievod
dam
prezum
ajustare
viză
##pot
Stras
suprafețele
##lery
lubri
zd
##sic
Bravo
formularea
##tismul
Dimensiuni
Nis
Pedagog
Săi
Tags
vulnerabil
platou
Competiția
dezi
picătură
Pof
considerabile
Zalău
Linia
nebunia
Băieții
apuc
considerentul
multinaționale
comă
lucrați
alcoolului
##kovski
nerec
base
Science
Gherla
notorie
uns
exporturile
ficatul
pretins
Bayer
neavând
1934
untul
declare
##omy
zdrob
călătoriile
##uad
scru
Miller
Ker
Rete
primavara
##jat
##arate
genoci
birourile
lansării
nemulțumit
optimist
Reacția
caracteristicilor
vâl
transparentă
suedez
terminale
guverne
droj
demnă
maică
localizat
1928
îndu
pălărie
##uților
avînd
distrat
##ghin
Piata
##tv
revăr
Horoscop
Farmacie
inconte
excesul
imediate
##cio
solicitați
vreunui
readuce
păcatelor
bătrânii
agentului
înfrângerea
calcularea
singurătate
nervi
țesutului
viceprimarul
micii
favorită
anula
mitropolit
nelimitat
principali
furtul
tunel
acnee
Little
căsătorească
Stein
diplomatic
zinc
coagul
##roeconom
echitabil
echipajului
fragil
tiran
eliminați
înguste
orizo
convenție
Ins
##UAL
##mbata
negat
părerile
##RIN
complicitate
pretind
priete
împrejură
supravie
Putea
futut
Berg
vreuna
sarbat
popularitate
##ariția
indicatorilor
gardul
Curs
##upe
prevadă
##varia
Monumentul
domestice
cash
name
acuza
platit
inspira
Stockholm
militarilor
cotidiene
urinare
solicitant
hrănește
parfumul
Apartamentul
districtul
întrunit
astrolog
caracteristice
însărcinate
scriitorii
##oker
sufoc
emine
Litere
hotărăște
Concurenței
##wen
##idarea
realizezi
chemare
British
prinse
Aflați
##băn
sesiunii
Feric
lentile
Concertul
Bani
poeți
privea
tavan
Asigurarea
Sfârșit
Nationale
Senatorul
turb
spin
##ère
##renii
sprânce
estimate
Fox
sut
pastra
Specta
Rese
clasificarea
Brand
elaborare
Libia
Georgi
sportivii
actiuni
Reamin
##fale
AA
rotație
hoț
conjun
antică
regatul
contrare
Marc
##oseaua
estetice
distins
Aprecie
manifestarea
israelian
##ref
Crește
Mercur
conectați
penet
##ción
asasinat
Spiritul
##cență
Gama
întrerupere
deputaților
trimitem
Meri
vorbire
Antal
actorilor
purtați
substanței
japone
geamuri
experimenta
secunda
##ée
##dezi
##uăm
stabiliți
##ziale
dinamice
Supli
##gării
##nicia
considerente
totodata
perimetrul
ieșiți
SPECI
placuta
virusului
intențiile
Bacau
Lansarea
Conceptul
Dornei
##ătorului
Mazăre
Prepar
ghinion
Ronaldo
situa
Orașului
îngerul
##ologilor
organică
Păcat
##ilic
strângă
comandate
inefic
mătușa
lucrând
materiei
mulțumi
generată
câștigătorul
creștinismului
SCM
compensare
îmbătrânire
Jandarmeriei
pădurii
Rec
Emis
căpă
voiau
vitală
cuprinzătoare
faimos
inspectorii
probabilitatea
firește
inlocu
diavolului
Materialul
TIM
##cube
##zidenți
generatoare
măiest
functia
denumiri
##uoasă
Rit
Ince
zia
edition
Resort
##ește
##rofe
##stadt
##genun
rufe
INF
activarea
anime
insomn
beneficiarului
sari
tubul
complexului
tempera
imprum
reținere
MM
##inel
##mantului
Bebe
justificată
Strasbourg
##derală
Marm
concretă
multilate
polic
pozitie
##statea
subiecți
EUROPENE
opun
desemnează
##conescu
ținutul
Reme
orf
notificat
##steze
##seli
Lamb
##ntu
Cantacuzino
GmbH
Lote
întrist
actualiza
contemporani
conjug
bli
binevo
luminat
LCD
##stone
##ațiune
exercite
Fenomen
cloud
încetin
alergice
Imagine
încotro
##ERV
explodat
palmă
Informare
Cura
aminoaci
Suport
soiuri
##ab
combinația
Barbie
Frontieră
Botos
##oral
orgasm
eliberați
##tătoare
##reasa
râuri
consacrate
florale
Coca
spea
Saraievo
intar
##casnice
acumularea
extră
traduse
##odă
Prevede
intimitate
furnizării
Tabelul
##NȚA
ferment
separarea
substanțiale
weeken
Asadar
integritate
prindere
Fotografie
Doriți
pistolul
##izo
Eliber
tigaie
Varia
Oceania
mincinos
îndemâna
subiectiv
##itește
reporte
##cenți
inchide
##âte
##fet
Bom
Îna
Suge
subliniind
teoriei
##65
cardin
teritorial
##rix
poluării
amețe
FS
taci
adaos
dnă
Oricare
burta
Viv
##ometru
##ires
celula
curata
teologie
##netică
##dha
străzilor
Alecsandri
remedii
alpin
DECIZ
##ruit
claselor
adăugăm
Cetății
Memori
prăzn
audieri
prinzi
1921
Relațiile
uniforme
Institute
Sfinte
amplasarea
câștigate
##ae
Azer
##garii
satisfacția
##imilor
Anatol
Arbit
Premiului
Crucii
Atra
##lând
înscriu
latine
criminalității
Ejaculare
Kol
simet
meni
sanatatea
zugră
Țuț
cărăm
achită
municipalitatea
confruntare
##rante
Marinescu
IMP
##imon
afuri
revendică
urmărite
origini
##lănț
cabina
occidentală
strictă
Grigorescu
onorat
mase
##dos
##culescu
vinovată
Bag
generic
Frumoasa
provizorii
clinica
Tîrgu
##tizarea
adolescente
odihnească
##roză
Stone
Patriarhiei
Sop
alge
înscrisă
chipurile
Concluzia
##oglice
##scătoare
noțiuni
folosea
înnebun
siteuri
Mada
Cehă
mărturia
viziona
##ass
urmatoarea
Exclu
Ridic
magni
realist
titularul
intestinale
Botezătorul
##netic
florilor
tragem
criteriul
aterizare
celalalt
Maca
inculpați
tragedia
liniștiți
negociat
Văr
Marsh
scenele
separare
Stadionul
##uan
##rizare
ambig
covor
privită
Sued
Activități
întârzieri
Stân
simpatic
deosebita
Pharma
portret
reevalu
Luceafărul
scurs
lumân
Diaconu
Apr
poem
Atene
Oferim
patria
##șorul
Lumini
Mei
Membru
Einstein
burtă
difuzate
Crearea
scuzați
vedeti
Maroc
unește
if
Tadic
aperi
reclamantul
Uman
intime
specialitatea
Wol
comuniune
variantele
Evoluția
criticii
palmare
decap
merite
Sibe
##RC
mândria
##riller
exprop
anexele
HA
comori
apăsat
masuri
mărturisi
culturilor
##rantă
SD
##HD
Sfaturi
Milan
cronic
sărbătorim
urâtă
aparatură
iubea
Sporturilor
descif
##BIL
Down
antece
turcești
împrejur
instruirea
împrejurimile
duceți
străinilor
briga
Fle
PUBL
##ferei
dispers
Cahul
seful
caruia
conducătorilor
îngust
CI
Frede
arg
##țitului
ture
Evanghelie
introduceți
cookies
Tax
Ianuarie
1922
##țelu
cabină
bebelus
##arfe
relată
##spăt
amână
##kon
penalty
dou
Accesat
cules
Slav
academică
Josh
indiferen
Clienții
priviți
comisiilor
rusească
rotile
##oarcerea
bloggeri
competitivității
##arter
Ioa
vizelor
aruncăm
pseudo
##ătut
Pantelim
Ext
Cinemat
LU
##cuiva
evacuarea
##68
##olis
interpretată
furtun
##ficator
conserve
podoa
Boca
temut
rangul
curioasă
eventuală
nedu
desemnate
adrenal
aver
Fost
SL
constituțională
Ideal
Oceanul
înțeleasă
1927
profite
##soane
garanteze
luptător
constau
##feron
gaming
antide
adjun
scrisorile
antid
Kö
sârmă
Gangbang
##căi
terminăm
Evaluare
sîntem
preca
târgul
infilt
actualmente
Oxford
tracțiune
Petrolul
dealuri
autonomia
mîna
debutează
Copenhaga
mâncăruri
direcției
ordonanțe
maniera
poten
strategiile
Contempor
GN
Stelian
conversie
certificatelor
canon
Space
infant
Pradă
obisnuit
fle
Dim
accesori
hidrata
Memor
Bin
Populația
valid
TFUE
Lewis
treburi
Reabil
asistenți
##oba
păi
motivație
umărul
exprimarea
actri
reprezentantului
fain
Partida
cubi
învecinate
timpuriu
##arb
##ștei
coborî
Construcții
##gărul
coordonează
densitate
banal
diaree
Informatică
##SCU
Corporation
##manii
Intere
sumb
Automo
demisi
##reană
numa
macroeconom
alcătuiesc
motivarea
olandez
Subiectul
Fashion
enig
controalele
Treime
Declarație
Champions
ocupi
singurat
microbi
cautarea
vârstnici
dușmanii
colinde
minorități
Succesul
##arp
efectului
campaniile
Dorim
##rentă
Pleacă
doisprezece
recunoscător
refugiaților
revoluționar
Etapa
EA
Preotul
MOL
Shopping
Dac
1800
Ross
blogului
călugăr
DAR
imine
justificate
familial
recidi
provenit
Afla
##zh
##see
Reprezentant
Ii
armament
asociați
tăierea
hidrocar
sintagma
##ordan
Furt
scapa
caritate
personala
sferturile
Corpului
impozabile
creditul
cuplul
adversarii
anih
obligației
trofeul
judecătorului
revan
delegația
protesta
BAC
altcuiva
Justit
spiritele
##92
transformate
deteriorarea
OB
##pozit
Stau
Sydney
sărbătorii
plaje
necont
##tics
Printr
chic
gândindu
Februarie
moldovenească
Țig
trebuiesc
grupare
disciplinare
##neste
[...]
